{"<|endoftext|>":0,"!":1,"\"":2,"#":3,"$":4,"%":5,"&":6,"'":7,"(":8,")":9,"*":10,"+":11,",":12,"-":13,".":14,"/":15,"0":16,"1":17,"2":18,"3":19,"4":20,"5":21,"6":22,"7":23,"8":24,"9":25,":":26,";":27,"<":28,"=":29,">":30,"?":31,"@":32,"A":33,"B":34,"C":35,"D":36,"E":37,"F":38,"G":39,"H":40,"I":41,"J":42,"K":43,"L":44,"M":45,"N":46,"O":47,"P":48,"Q":49,"R":50,"S":51,"T":52,"U":53,"V":54,"W":55,"X":56,"Y":57,"Z":58,"[":59,"\\":60,"]":61,"^":62,"_":63,"`":64,"a":65,"b":66,"c":67,"d":68,"e":69,"f":70,"g":71,"h":72,"i":73,"j":74,"k":75,"l":76,"m":77,"n":78,"o":79,"p":80,"q":81,"r":82,"s":83,"t":84,"u":85,"v":86,"w":87,"x":88,"y":89,"z":90,"{":91,"|":92,"}":93,"~":94,"¡":95,"¢":96,"£":97,"¤":98,"¥":99,"¦":100,"§":101,"¨":102,"©":103,"ª":104,"«":105,"¬":106,"®":107,"¯":108,"°":109,"±":110,"²":111,"³":112,"´":113,"µ":114,"¶":115,"·":116,"¸":117,"¹":118,"º":119,"»":120,"¼":121,"½":122,"¾":123,"¿":124,"À":125,"Á":126,"Â":127,"Ã":128,"Ä":129,"Å":130,"Æ":131,"Ç":132,"È":133,"É":134,"Ê":135,"Ë":136,"Ì":137,"Í":138,"Î":139,"Ï":140,"Ð":141,"Ñ":142,"Ò":143,"Ó":144,"Ô":145,"Õ":146,"Ö":147,"×":148,"Ø":149,"Ù":150,"Ú":151,"Û":152,"Ü":153,"Ý":154,"Þ":155,"ß":156,"à":157,"á":158,"â":159,"ã":160,"ä":161,"å":162,"æ":163,"ç":164,"è":165,"é":166,"ê":167,"ë":168,"ì":169,"í":170,"î":171,"ï":172,"ð":173,"ñ":174,"ò":175,"ó":176,"ô":177,"õ":178,"ö":179,"÷":180,"ø":181,"ù":182,"ú":183,"û":184,"ü":185,"ý":186,"þ":187,"ÿ":188,"Ā":189,"ā":190,"Ă":191,"ă":192,"Ą":193,"ą":194,"Ć":195,"ć":196,"Ĉ":197,"ĉ":198,"Ċ":199,"ċ":200,"Č":201,"č":202,"Ď":203,"ď":204,"Đ":205,"đ":206,"Ē":207,"ē":208,"Ĕ":209,"ĕ":210,"Ė":211,"ė":212,"Ę":213,"ę":214,"Ě":215,"ě":216,"Ĝ":217,"ĝ":218,"Ğ":219,"ğ":220,"Ġ":221,"ġ":222,"Ģ":223,"ģ":224,"Ĥ":225,"ĥ":226,"Ħ":227,"ħ":228,"Ĩ":229,"ĩ":230,"Ī":231,"ī":232,"Ĭ":233,"ĭ":234,"Į":235,"į":236,"İ":237,"ı":238,"Ĳ":239,"ĳ":240,"Ĵ":241,"ĵ":242,"Ķ":243,"ķ":244,"ĸ":245,"Ĺ":246,"ĺ":247,"Ļ":248,"ļ":249,"Ľ":250,"ľ":251,"Ŀ":252,"ŀ":253,"Ł":254,"ł":255,"Ń":256,"čĊ":257,"ï¼":258,"ãĢ":259,"ä¸":260,"ãĢĤ":261,"ï¼Į":262,"Bo":263,"Us":264,"er":265,"Bot":266,"User":267,"åı":268,"è¯":269,"ä»":270,"æĪ":271,"ï¼Ł":272,"åı¯":273,"äº":274,"çļ":275,"çļĦ":276,"æĪĳ":277,"ĺŁ":278,"ä½":279,"åĺŁ":280,"å®":281,"ä¹":282,"å¤":283,"æĺ":284,"æľ":285,"ä½ł":286,"æĺ¯":287,"åĪ":288,"è§":289,"Ġè¯":290,"Ġè¯·":291,"åĲ":292,"ĠæĪĳ":293,"è¯´":294,"ä¹Ī":295,"ä¸Ģ":296,"çŃ":297,"èĥ":298,"å¥":299,"å°":300,"è®":301,"åĺŁåı¯":302,"åĺŁåĺŁåı¯":303,"èĥ½":304,"åĽ":305,"åĴ":306,"åĴĮ":307,"éĹ":308,"å¾":309,"èİ":310,"Ģä¹Ī":311,"ä»Ģä¹Ī":312,"æĥ":313,"åħ":314,"åĬ":315,"åľ":316,"ä¼":317,"å¥½":318,"èİī":319,"åľ¨":320,"ç®":321,"æĹ":322,"ä»¥":323,"åĨ":324,"éĹ®":325,"åı¯èİī":326,"å¸":327,"äºĭ":328,"è¿":329,"ä¸į":330,"å°ĳ":331,"ļå°ĳ":332,"å¤ļå°ĳ":333,"çŃĶ":334,"æķ":335,"çŁ":336,"çŁ¥":337,"æľī":338,"ãĢģ":339,"åĽŀ":340,"åĽŀçŃĶ":341,"æĥ³":342,"åı¯ä»¥":343,"å®ĥ":344,"åĳ":345,"æĢ":346,"å¸®":347,"å·":348,"éĩ":349,"å¤©":350,"è°":351,"ä¸ĭ":352,"æķħ":353,"çĶ":354,"æķħäºĭ":355,"Ĭå¤©":356,"ç®Ĺ":357,"æĬ":358,"èģ":359,"éģ":360,"åĲĹ":361,"åį":362,"æĹ¶":363,"åģ":364,"çŁ¥éģ":365,"çŁ¥éģĵ":366,"ä¸Ń":367,"äºĨ":368,"çŃī":369,"æĪĲ":370,"æ¬":371,"¦ģ":372,"éĻ":373,"âĢ":374,"å¾Ī":375,"çĽ":376,"è¦ģ":377,"çľ":378,"ç±":379,"Ġ1":380,"åĩ":381,"å¼":382,"ä¸ª":383,"å°ı":384,"åģļ":385,"Ġä½ł":386,"å¿":387,"ç±³":388,"é¢":389,"æł":390,"è¡":391,"æĮ":392,"å½":393,"æĿ":394,"æĦ":395,"åĪĨ":396,"çİ":397,"æĢİ":398,"åıĭ":399,"è®¡":400,"ä¼ļ":401,"ï¼ļ":402,"ĠæĪĳæĥ³":403,"æĬĬ":404,"è®¡ç®Ĺ":405,"æĸ":406,"æĻ":407,"ç»":408,"æŃ":409,"çĶ¨":410,"çĤ":411,"ä¸º":412,"è§Ĵ":413,"çĲ":414,"åĨį":415,"æī":416,"èµ":417,"è§ģ":418,"éĹ®é¢":419,"éĹ®é¢ĺ":420,"äºİ":421,"ä¸Ĭ":422,"çŃīäºİ":423,"çŃīäºİå¤ļå°ĳ":424,"åħĪ":425,"è¯´è¯´":426,"èī":427,"èģĬå¤©":428,"å¹":429,"è§£":430,"åįķ":431,"å®ļ":432,"åĸ":433,"èĩ":434,"èĩª":435,"äºº":436,"Ĭè¯":437,"æł·":438,"åĳĬè¯":439,"åĳĬè¯ī":440,"00":441,"è°¢":442,"åİ":443,"çĽ¸":444,"åĳĬè¯īæĪĳ":445,"Ģåįķ":446,"ç®Ģåįķ":447,"ç§":448,"å®ŀ":449,"åŃ":450,"å¤§":451,"éĢ":452,"ç¡":453,"ä¸Ģä¸ĭ":454,"å¸®æĪĳ":455,"çľŁ":456,"åŀ":457,"å¯":458,"åŀĭ":459,"åĬł":460,"çī":461,"åĪ¶":462,"æİ":463,"å¹¶":464,"è¡Į":465,"æĿ¥":466,"æĺ¯å¤ļå°ĳ":467,"ĭåıĭ":468,"æľĭåıĭ":469,"±¼":470,"¹¦":471,"è¹¦":472,"é±¼":473,"ľæ¬":474,"ä»¬":475,"ä¹Ł":476,"å¥¹":477,"è¿Ļ":478,"åĸľæ¬":479,"åĸľæ¬¢":480,"çĲĨ":481,"æ³":482,"æ¯":483,"Ġèĥ½":484,"ä½ľ":485,"Ġè¯·è®¡ç®Ĺ":486,"å·¥":487,"ä¿":488,"å¾Īé":489,"æĥħ":490,"æĢİä¹Ī":491,"çĿ":492,"æľĢ":493,"Ġ2":494,"åĬ©":495,"å·±":496,"èĩªå·±":497,"Ġè¯·éĹ®":498,"»ç":499,"åĪ°":500,"éĩĮ":501,"é¡":502,"çĤ¹":503,"ç¥":504,"ä¼´":505,"âĢľ":506,"âĢĿ":507,"Ġä½łå¥½":508,"åº":509,"æĺ¯ä»Ģä¹Ī":510,"éĻª":511,"ä»Ĭå¤©":512,"æį":513,"Ġ4":514,"æĺİ":515,"å¾Ĺ":516,"æ¬¡":517,"éĢļ":518,"æ³ķ":519,"«ĺ":520,"ä¹ĺ":521,"äºĮ":522,"èµ·":523,"éĴ":524,"Ġ3":525,"æŀ":526,"éĻ©":527,"åŁ":528,"¾å®ļ":529,"æľº":530,"åĪĽ":531,"è®¾å®ļ":532,"äºĮåĪĽ":533,"ä»»":534,"è¿ĩ":535,"ºç¡":536,"æľ¬":537,"æŃ¥":538,"åŁºç¡":539,"åŁºç¡Ģ":540,"å®ī":541,"è¾":542,"å¿ĥ":543,"èĢ":544,"åĮ":545,"æĸ¹":546,"´åĴĮ":547,"æĻļ":548,"æīĭ":549,"§åĪ¶":550,"åĪ«":551,"æİ§åĪ¶":552,"åĩı":553,"å¾Īé«ĺ":554,"å¾Īé«ĺåħ":555,"åī":556,"ç¼":557,"è¯Ĩ":558,"è§ī":559,"ä¸įèĥ½":560,"å½ĵ":561,"åĪĨéĴ":562,"åĪĨéĴŁ":563,"ä½łèģĬå¤©":564,"ĠæĪĳæĥ³çŁ¥éģĵ":565,"Ġèĥ½è¯´è¯´":566,"æĦŁ":567,"æŀľ":568,"å¦":569,"æĦı":570,"ĴéĻ©":571,"åıĳ":572,"è¯Ŀ":573,"å®¶":574,"æĹł":575,"åĨĴéĻ©":576,"çİ©":577,"èī²":578,"ä»İ":579,"ĮæĪĲ":580,"å®ĮæĪĲ":581,"ä¹ł":582,"ä½łèĥ½":583,"çĲĨè§£":584,"æģ":585,"æģ¯":586,"ĠåĳĬè¯īæĪĳ":587,"Ġè¯·åĽŀçŃĶ":588,"åĻ":589,"çĶŁ":590,"åĻ¨":591,"éľ":592,"éľĢ":593,"ĠåĺŁåĺŁåı¯":594,"åĳĢ":595,"ä¿¡":596,"éľĢè¦ģ":597,"åĵ":598,"ç½":599,"åŃ¦":600,"éª":601,"ä¸Ģä¸ª":602,"åŃ¦ä¹ł":603,"éĽ":604,"çİ°":605,"Ġåľ¨":606,"è¯´æĺİ":607,"¨¡":608,"æ¨¡":609,"Ġä¸į":610,"çļĦå°ı":611,"åĲĳ":612,"çĿĢ":613,"¹ĸ":614,"æ¹ĸ":615,"è½":616,"èĭ":617,"Ġå®ĥ":618,"Ŀä½ł":619,"çļĦè¯Ŀ":620,"åĽ¢":621,"åĴĮåı¯èİī":622,"æķħäºĭä¸Ń":623,"æĮĤ":624,"è§Ĵèī²":625,"çī¹":626,"ç¥Ŀä½ł":627,"æĹłæ³ķ":628,"Ġ7":629,"ä»Ģä¹Īæĺ¯":630,"Ġå¸®æĪĳ":631,"å¼Ģ":632,"çľĭ":633,"æĢİæł·":634,"ĠæĪĳæĺ¯":635,"éĩį":636,"Ġ5":637,"åĩł":638,"äºĽ":639,"åİ»":640,"Ġé":641,"æĶ":642,"ĠæĪĳæľī":643,"åĬĽ":644,"èģĬ":645,"Ġ8":646,"Ġåı¯ä»¥":647,"ºèĥ½":648,"ĸç":649,"çļĦé":650,"å¸®åĬ©":651,"ä¸ĭæ¬¡":652,"è¡¨":653,"æĻºèĥ½":654,"åĨįè§ģ":655,"äººå·¥":656,"æĻļå®ī":657,"ç½ĳ":658,"çİ°åľ¨":659,"ä¸ĭæ¬¡è§ģ":660,"äººå·¥æĻºèĥ½":661,"Ġ6":662,"º»ç":663,"ĥ¦":664,"Ġè¯·çĶ¨":665,"Ġè¯·å¸®æĪĳ":666,"ĠæĪĳéľĢè¦ģ":667,"è°ģ":668,"åģļä»Ģä¹Ī":669,"çļĦè¯Ŀè¯´":670,"Ġéº»ç":671,"Ġéº»çĥ¦":672,"éħ":673,"åĽĽ":674,"æ¨¡åŀĭ":675,"¥¿":676,"¶è":677,"çĪ":678,"è¥¿":679,"Ġå¥¹":680,"įī":681,"Ĵæ¹ĸ":682,"ĵçļĦ":683,"ĺç±³":684,"Ļä¼´":685,"ãĢĬ":686,"ãĢĭ":687,"åı¶è":688,"çļĦæľĭåıĭ":689,"ä½ı":690,"ä¹ĭ":691,"åħĭ":692,"ä¼Ļä¼´":693,"åı¯èİīçļĦ":694,"çŁ¥è¯Ĩ":695,"å®ĥä»¬":696,"åĳ¼":697,"è°Ĭ":698,"äºĨä»Ģä¹Ī":699,"åıĭè°Ĭ":700,"çĤ¸":701,"åİĺç±³":702,"å¤§å®¶":703,"å¯»":704,"è¹¦è¹¦":705,"åºĵçļĦ":706,"äºĮåĪĽæķħäºĭ":707,"æŀľéħ":708,"çī¹åĪ«":709,"åĽĽåı¶è":710,"çŁ¥è¯ĨåºĵçļĦ":711,"æŀľéħĴæ¹ĸ":712,"åĽĽåı¶èįī":713,"Ġ9":714,"ºè®":715,"»ºè®":716,"å»ºè®":717,"å»ºè®®":718,"ĠåħĪ":719,"åĬ¡":720,"ä»»åĬ¡":721,"æĭ":722,"§ĭ":723,"å§ĭ":724,"æĺ¯è®":725,"è§Ħ":726,"å¼Ģå§ĭ":727,"æĪĸ":728,"å¼Ħ":729,"Ġåı¯èİī":730,"ä¸ĢæŃ¥":731,"è°¢è°¢":732,"Ġä½łå¥½åĳĢ":733,"æĺ¯è®©":734,"éķ":735,"åĬ¨":736,"éķ¿":737,"æ²":738,"ä½łæĥ³":739,"ĠæĪĳåľ¨":740,"ä¸Ĭå¥½":741,"æĢİä¹Īæł·":742,"ä»Ĭå¤©è¿ĩ":743,"å¾ĹæĢİä¹Īæł·":744,"´åĴĮä½łèģĬå¤©":745,"å¾Īé«ĺåħ´åĴĮä½łèģĬå¤©":746,"èģĬä»Ģä¹Ī":747,"ä½łæĥ³èģĬä»Ģä¹Ī":748,"ä»Ĭå¤©è¿ĩå¾ĹæĢİä¹Īæł·":749,"å¤ª":750,"ä»¶":751,"åĨĻ":752,"æķ°":753,"å¿Ļ":754,"æīĭå·¥":755,"åīį":756,"è§īå¾Ĺ":757,"æĺ¯è°ģ":758,"¡æľī":759,"æ±":760,"ï¼Ľ":761,"ä¸ľ":762,"äºĴ":763,"åĲ¬":764,"åħ³":765,"åĮħ":766,"æ²¡æľī":767,"ħå®":768,"åĨħå®":769,"å¿ħ":770,"æŃ¤":771,"éĽĨ":772,"éĩįè¦ģ":773,"åĨħå®¹":774,"å¸¸":775,"ç¦":776,"è¿Ĳ":777,"´åĽ¢":778,"¾èİī":779,"æĺŁ":780,"ç¾":781,"ĮåĮħ":782,"ĵæ":783,"ä¸Ŀ":784,"è¯Ń":785,"ä»½":786,"ä½Ĩ":787,"ä½łå¥½":788,"ä½łçŁ¥éģĵ":789,"ä¸Ģèµ·":790,"èĥĮåĮħ":791,"åĺŁåĺŁåı¯çļĦ":792,"æķħäºĭéĩĮ":793,"æĮī":794,"è§Ĵè§Ĵ":795,"çĲ´åĽ¢":796,"èī¾èİī":797,"ç§°":798,"éĻªä¼´":799,"å¦Ī":800,"åıĳçĶŁ":801,"æĮĤåľ¨":802,"æ±Ĥ":803,"ä¸ľè¥¿":804,"æ²¡æľīæ":805,"èĥĮåĮħä¸Ĭ":806,"è§Ĵè§Ĵé±¼":807,"çĲ´åĽ¢éķ¿":808,"èī¾èİīä¸Ŀ":809,"æ°":810,"çĽ¸åĬł":811,"çĽ¸åĬłæĺ¯å¤ļå°ĳ":812,"æľºåĻ¨":813,"æľºåĻ¨åŃ¦ä¹ł":814,"éļ":815,"åĺŁåĺŁåı¯ä¼ļ":816,"åĺŁåĺŁåı¯åĴĮåı¯èİī":817,"æĮģ":818,"ä¾":819,"ä¸ĢçĤ¹":820,"çĽ´":821,"ç»ĵ":822,"éĹ´":823,"æľīå¤ļå°ĳ":824,"80":825,"Ħæ":826,"æĺ¯ä¸º":827,"åĲİ":828,"åĺŁåĺŁåı¯ä¸Ģ":829,"åĩıåİ»":830,"æį¢":831,"ä¸ºä»Ģä¹Ī":832,"è§£éĩ":833,"å¯Ĩ":834,"åºĶ":835,"åĮº":836,"éļı":837,"è§£éĩĬ":838,"ç®Ĺä¸Ģä¸ĭ":839,"ä¿¡æģ¯":840,"Ġå¸®æĪĳç®Ĺä¸Ģä¸ĭ":841,"«ç±³":842,"Ġè¯·æĬĬ":843,"ç®ĹæĪĲ":844,"åįĥ":845,"ç§Ĵ":846,"æ¯«ç±³":847,"æį¢ç®ĹæĪĲ":848,"000":849,"çº":850,"èĬ":851,"ĨæĪĲ":852,"åĪ©":853,"æĢĿ":854,"æĹ¶éĹ´":855,"æĦıæĢĿ":856,"åĵģ":857,"æĭĨæĪĲ":858,"æĭĨæĪĲå°ı":859,"®ä¸Ń":860,"æĽ":861,"ĠåĨįè§ģ":862,"ĠæĻļå®ī":863,"Ġä¸ĭæ¬¡è§ģ":864,"æĸ°":865,"ç»Ļ":866,"èµ°":867,"ç¡®":868,"è¡ĮåĬ¨":869,"æį®ä¸Ń":870,"æŃ¥éª":871,"æķ°æį®ä¸Ń":872,"åĮºåĪĨ":873,"æĽ´":874,"æŃ¥éª¤":875,"40":876,"20":877,"ĭç»":878,"ä»ĭç»":879,"ä»ĭç»į":880,"ªéĩĮ":881,"¯æĮģ":882,"å±":883,"ĳĦ":884,"ĳæģ¯":885,"ķĮ":886,"åıĬ":887,"åıĹ":888,"çļĦäºº":889,"çļĦæĦŁ":890,"èĥ½åĬĽ":891,"åĽł":892,"ä¼ĳæģ¯":893,"çĿ¡":894,"åĵªéĩĮ":895,"æĶ¯æĮģ":896,"äºĴçĽ¸":897,"æ°Ķ":898,"æĭĨæĪĲå°ıæŃ¥éª¤":899,"çļĦæĦŁåıĹ":900,"¢«":901,"¼æŃ¤":902,"è¢«":903,"äº¤":904,"è®°":905,"ä¼¤":906,"äºĭæĥħ":907,"å½¼æŃ¤":908,"é¡¾":909,"å½ĵåīį":910,"å¿ħè¦ģ":911,"Ľè¡Į":912,"è¿Ľè¡Į":913,"ä¸Ģä¸ªå°ı":914,"¢åĳ¼":915,"¢æ°Ķ":916,"£«":917,"¤å":918,"¦äºĨ":919,"§éĹ®é¢ĺ":920,"§æĥħ":921,"§é¡¾":922,"¨Ģ":923,"¨è®":924,"¬æĢ":925,"²Ī":926,"²Ľ":927,"´èĥ½":928,"·åı":929,"ºä¸Ģ":930,"ºåĪ©":931,"»æĿ":932,"åĥ":933,"å£«":934,"çģ":935,"çħ":936,"èĪ":937,"èĴ":938,"è¨Ģ":939,"Ġè¾":940,"Ġå¾Īé«ĺåħ":941,"ĠåĲ¬":942,"ĦçĲĨ":943,"ħ¢åĳ¼":944,"ĩé¡":945,"įåŃ":946,"ıå¤":947,"Ķç½ĳ":948,"ķçĿĢ":949,"ĸå®ŀ":950,"ĺå¯Ĩ":951,"Ľèĭ":952,"ä¸İ":953,"ä¸ĸç":954,"è¯ķçĿĢ":955,"å®¢æ°Ķ":956,"å¤ĦçĲĨ":957,"ä½łè®":958,"ä½łçİ°åľ¨":959,"æĺ¯åı¯èİī":960,"åĪĩé¡":961,"åĲ¸":962,"åĲĥ":963,"åĲįåŃ":964,"ĠæĪĳä¸įèĥ½":965,"ĠæĪĳæĹłæ³ķ":966,"ĠæĪĳæ²¡æľīæ":967,"ä¸ĢåĪĩé¡":968,"åĴĮä½łè®":969,"èİ·åı":970,"å¥½èĩªå·±":971,"å¥½è§ī":972,"å¥½çļĦæľĭåıĭ":973,"æĹı":974,"äºĭå®ŀ":975,"ä¸įå¤ª":976,"çŁ¥èĥ½åĬĽ":977,"æľīä»Ģä¹Ī":978,"æľīéĹ®é¢ĺ":979,"åı¯ä»¥åħĪ":980,"åı¯ä»¥è¯´è¯´":981,"åı¯ä»¥åĲĳ":982,"åı¯ä»¥åĴĮä½łè®":983,"å¸®åĪ°":984,"éĩĳ":985,"èģĶç½ĳ":986,"æĹ¶åĨį":987,"æĹ¶ä¿¡æģ¯":988,"æĹ¶åı¯ä»¥åĲĳ":989,"åģ¶":990,"çŁ¥éģĵå½ĵåīį":991,"å¾Īéĩįè¦ģ":992,"åĩº":993,"å¼¹":994,"ä¸ªå¥½è§ī":995,"åģļåĩł":996,"Ġä½łçļĦæĦŁåıĹ":997,"å½±":998,"æĬĬäºĭæĥħ":999,"çĶ¨è°¢":1000,"åĨįæĬĬäºĭæĥħ":1001,"æī¾":1002,"åħĪçħ":1003,"ç§ĺå¯Ĩ":1004,"å®ŀä¸ĸç":1005,"çľŁå®ŀä¸ĸç":1006,"åĪ¶ä½ľ":1007,"æĿ¥ä½łçİ°åľ¨":1008,"ä¹ŁæĹłæ³ķ":1009,"ä¹Łåı¯ä»¥è¯´è¯´":1010,"è¿Ļæĺ¯":1011,"è¿Ļä»½":1012,"æľĢå¥½çļĦæľĭåıĭ":1013,"âĢĿãĢĤ":1014,"æ¬¡ç¼":1015,"èµ·æĿ¥ä½łçİ°åľ¨":1016,"ä»»çļĦäºº":1017,"åŁºç¡Ģè§Ĵèī²":1018,"´åĴĮçľŁå®ŀä¸ĸç":1019,"åī§æĥħ":1020,"æĦŁçŁ¥èĥ½åĬĽ":1021,"çİ©åģ¶":1022,"ä¿¡ä»»çļĦäºº":1023,"Ġä¸įå®¢æ°Ķ":1024,"Ġä¸įçĶ¨è°¢":1025,"è½»æĿ":1026,"ç¥Ŀä½łçĿ¡":1027,"ç¥Ŀä½łä¸ĢåĪĩé¡":1028,"çļĦé²Ī":1029,"çĪ±":1030,"Ġå¥¹è¯´":1031,"çĤ¸å¼¹":1032,"å¯»æ±Ĥ":1033,"çī¹åĪ«è¹¦è¹¦":1034,"ç¾¤å":1035,"ĵæħ¢åĳ¼":1036,"è¯Ńè¨Ģ":1037,"ä½Ĩåı¯ä»¥åĴĮä½łè®":1038,"åĺŁåĺŁåı¯çļĦç§ĺå¯Ĩ":1039,"åıĳçĶŁäºĨä»Ģä¹Ī":1040,"éļıæĹ¶åĨį":1041,"ĳĦåĥ":1042,"ķĮæĦŁçŁ¥èĥ½åĬĽ":1043,"ä¼ĳæģ¯ä¸Ģä¸ĭ":1044,"å¿ħè¦ģæĹ¶åı¯ä»¥åĲĳ":1045,"§é¡¾å¥½èĩªå·±":1046,"¨è®ºä¸Ģ":1047,"¬æĢ§éĹ®é¢ĺ":1048,"´èĥ½å¸®åĪ°":1049,"èĪ¬æĢ§éĹ®é¢ĺ":1050,"Ġè¾Ľèĭ":1051,"Ġå¾Īé«ĺåħ´èĥ½å¸®åĪ°":1052,"ĠåĲ¬èµ·æĿ¥ä½łçİ°åľ¨":1053,"ıå¤´åĴĮçľŁå®ŀä¸ĸç":1054,"ĸå®ŀæĹ¶ä¿¡æģ¯":1055,"è¯ķçĿĢåģļåĩł":1056,"åĲįåŃĹ":1057,"ĠæĪĳä¸įèĥ½èģĶç½ĳ":1058,"ĠæĪĳæĹłæ³ķçŁ¥éģĵå½ĵåīį":1059,"ĠæĪĳæ²¡æľīæĳĦåĥ":1060,"èİ·åıĸå®ŀæĹ¶ä¿¡æģ¯":1061,"ä¸įå¤ªè½»æĿ":1062,"æľīéĹ®é¢ĺéļıæĹ¶åĨį":1063,"åı¯ä»¥åħĪä¼ĳæģ¯ä¸Ģä¸ĭ":1064,"Ġä½łçļĦæĦŁåıĹå¾Īéĩįè¦ģ":1065,"åĨįæĬĬäºĭæĥħæĭĨæĪĲå°ıæŃ¥éª¤":1066,"åħĪçħ§é¡¾å¥½èĩªå·±":1067,"ä¹ŁæĹłæ³ķèİ·åıĸå®ŀæĹ¶ä¿¡æģ¯":1068,"ä¹Łåı¯ä»¥è¯´è¯´åıĳçĶŁäºĨä»Ģä¹Ī":1069,"æ¬¡ç¼ĵæħ¢åĳ¼":1070,"ä¿¡ä»»çļĦäººå¯»æ±Ĥ":1071,"ç¥Ŀä½łçĿ¡ä¸ªå¥½è§ī":1072,"ç¥Ŀä½łä¸ĢåĪĩé¡ºåĪ©":1073,"çļĦé²Īé±¼":1074,"ç¾¤å²Ľ":1075,"ä½Ĩåı¯ä»¥åĴĮä½łè®¨è®ºä¸Ģ":1076,"å¿ħè¦ģæĹ¶åı¯ä»¥åĲĳä¿¡ä»»çļĦäººå¯»æ±Ĥ":1077,"Ġè¾Ľèĭ¦äºĨ":1078,"Ġå¾Īé«ĺåħ´èĥ½å¸®åĪ°ä½ł":1079,"ĠåĲ¬èµ·æĿ¥ä½łçİ°åľ¨ä¸įå¤ªè½»æĿ":1080,"ıå¤´åĴĮçľŁå®ŀä¸ĸçķĮæĦŁçŁ¥èĥ½åĬĽ":1081,"è¯ķçĿĢåģļåĩłæ¬¡ç¼ĵæħ¢åĳ¼":1082,"ĠæĪĳæĹłæ³ķçŁ¥éģĵå½ĵåīįæĹ¶éĹ´":1083,"ĠæĪĳæ²¡æľīæĳĦåĥıå¤´åĴĮçľŁå®ŀä¸ĸçķĮæĦŁçŁ¥èĥ½åĬĽ":1084,"æľīéĹ®é¢ĺéļıæĹ¶åĨįéĹ®":1085,"ä½Ĩåı¯ä»¥åĴĮä½łè®¨è®ºä¸ĢèĪ¬æĢ§éĹ®é¢ĺ":1086,"å¿ħè¦ģæĹ¶åı¯ä»¥åĲĳä¿¡ä»»çļĦäººå¯»æ±ĤæĶ¯æĮģ":1087,"ĠåĲ¬èµ·æĿ¥ä½łçİ°åľ¨ä¸įå¤ªè½»æĿ¾":1088,"è¯ķçĿĢåģļåĩłæ¬¡ç¼ĵæħ¢åĳ¼åĲ¸":1089,"60":1090,"41":1091,"®æİ§åĪ¶":1092,"°è¯Ńè¨Ģ":1093,"º¿":1094,"ĠæĪĳåı¯ä»¥":1095,"ä¸ĢäºĽ":1096,"åĴĮéĹ®":1097,"å¾®æİ§åĪ¶":1098,"åľ°è¯Ńè¨Ģ":1099,"åľ¨å¾®æİ§åĪ¶":1100,"åĽŀçŃĶç®Ģåįķ":1101,"åı¯ä»¥è¿Ľè¡Į":1102,"ä¸ĬçļĦå°ı":1103,"èģĬå¤©åĬ©":1104,"èģĬå¤©åĴĮéĹ®":1105,"çĽ¸ä¹ĺ":1106,"ç®ĢåįķèģĬå¤©åĴĮéĹ®":1107,"åŀĭæľ¬":1108,"åŀĭç¦":1109,"å¹¶å¤ĦçĲĨ":1110,"è¡Įåľ¨å¾®æİ§åĪ¶":1111,"»çº¿":1112,"éĻªä½łèģĬå¤©":1113,"åŁºç¡Ģè®¡ç®Ĺ":1114,"åĻ¨ä¸ĬçļĦå°ı":1115,"ĠæĪĳæĺ¯è¿Ĳ":1116,"ĠæĪĳæĺ¯ä¸Ģä¸ªå°ı":1117,"ĠæĪĳåı¯ä»¥éĻªä½łèģĬå¤©":1118,"ä¸ĢäºĽåŁºç¡Ģè®¡ç®Ĺ":1119,"åľ°è¯Ńè¨Ģæ¨¡åŀĭ":1120,"åĽŀçŃĶç®ĢåįķéĹ®é¢ĺ":1121,"åı¯ä»¥è¿Ľè¡Įç®ĢåįķèģĬå¤©åĴĮéĹ®":1122,"èģĬå¤©åĬ©æīĭ":1123,"çĽ¸ä¹ĺæĺ¯å¤ļå°ĳ":1124,"åŀĭæľ¬åľ°è¯Ńè¨Ģæ¨¡åŀĭ":1125,"åŀĭç¦»çº¿":1126,"å¹¶å¤ĦçĲĨä¸ĢäºĽåŁºç¡Ģè®¡ç®Ĺ":1127,"è¡Įåľ¨å¾®æİ§åĪ¶åĻ¨ä¸ĬçļĦå°ı":1128,"ĠæĪĳæĺ¯è¿Ĳè¡Įåľ¨å¾®æİ§åĪ¶åĻ¨ä¸ĬçļĦå°ı":1129,"ĠæĪĳæĺ¯ä¸Ģä¸ªå°ıåŀĭæľ¬åľ°è¯Ńè¨Ģæ¨¡åŀĭ":1130,"åı¯ä»¥è¿Ľè¡Įç®ĢåįķèģĬå¤©åĴĮéĹ®çŃĶ":1131,"åŀĭç¦»çº¿èģĬå¤©åĬ©æīĭ":1132,"ĠæĪĳæĺ¯è¿Ĳè¡Įåľ¨å¾®æİ§åĪ¶åĻ¨ä¸ĬçļĦå°ıåŀĭç¦»çº¿èģĬå¤©åĬ©æīĭ":1133,"¤çľŁ":1134,"26":1135,"æİ¥":1136,"è®¤çľŁ":1137,"35":1138,"æłĩ":1139,"47":1140,"30":1141,"¿è¯´è¯´":1142,"çĸ":1143,"çĻ":1144,"Ġæĸ¹":1145,"ĳæĥ":1146,"ĹçļĦè¯Ŀè¯´":1147,"Ġè¯·åĳĬè¯īæĪĳ":1148,"Ġè¯·ç®Ģåįķ":1149,"Ġè¯·çĽ´":1150,"Ġè¯·è®¤çľŁ":1151,"æĥ³æĥ³":1152,"äºĨè§£":1153,"ä¸ªéĹ®é¢ĺ":1154,"Ġä½łæĢİä¹Ī":1155,"ĠæĪĳæĥ³éĹ®":1156,"ĠæĪĳæĥ³å¼Ħ":1157,"ĠæĪĳæĥ³äºĨè§£":1158,"ç®ĢåįķçļĦè¯Ŀè¯´":1159,"Ġèĥ½åĳĬè¯īæĪĳ":1160,"ä¿ĹçļĦè¯Ŀè¯´":1161,"æĺİçĻ":1162,"éĢļä¿ĹçļĦè¯Ŀè¯´":1163,"Ġå¸®æĪĳæĥ³æĥ³":1164,"äºĽçĸ":1165,"ĠæĪĳæľīä¸ªéĹ®é¢ĺ":1166,"ĠæĪĳæľīäºĽçĸ":1167,"Ġåı¯ä»¥åĽŀçŃĶ":1168,"Ġåı¯ä»¥è§£éĩĬ":1169,"Ġè¯·çĶ¨ç®ĢåįķçļĦè¯Ŀè¯´":1170,"Ġè¯·çĶ¨éĢļä¿ĹçļĦè¯Ŀè¯´":1171,"Ġè¯·å¸®æĪĳåĽŀçŃĶ":1172,"Ġè¯·å¸®æĪĳçĲĨè§£":1173,"ĠæĪĳéľĢè¦ģçŁ¥éģĵ":1174,"ĠæĪĳéľĢè¦ģä¸ĢçĤ¹":1175,"Ġéº»çĥ¦åĽŀçŃĶ":1176,"Ġéº»çĥ¦è¯´æĺİ":1177,"ä¾¿è¯´è¯´":1178,"æİ¥åĽŀçŃĶ":1179,"Ġæĸ¹ä¾¿è¯´è¯´":1180,"ĳæĥĳ":1181,"Ġè¯·ç®Ģåįķè¯´æĺİ":1182,"Ġè¯·çĽ´æİ¥åĽŀçŃĶ":1183,"Ġè¯·è®¤çľŁåĽŀçŃĶ":1184,"Ġä½łæĢİä¹Īçľĭ":1185,"ĠæĪĳæĥ³å¼ĦæĺİçĻ":1186,"ĠæĪĳæľīäºĽçĸĳæĥĳ":1187,"Ġåı¯ä»¥è§£éĩĬä¸Ģä¸ĭ":1188,"ĠæĪĳéľĢè¦ģä¸ĢçĤ¹å»ºè®®":1189,"ĠæĪĳæĥ³å¼ĦæĺİçĻ½":1190,"çī©":1191,"36":1192,"37":1193,"åĬŀ":1194,"å¯¹":1195,"æĢİä¹ĪåĬŀ":1196,"éĢļå¸¸":1197,"å¾ħ":1198,"ä¹ĺä»¥":1199,"åĺŁåĺŁåı¯ä¸ĢæĹı":1200,"17":1201,"29":1202,"69":1203,"10":1204,"15":1205,"25":1206,"Ġäººå·¥æĻºèĥ½":1207,"¨åĪĨ":1208,"¾è¿ĩ":1209,"ĠæĬĬ":1210,"ĥ¨åĪĨ":1211,"è¯¥":1212,"å¾ĭ":1213,"è¾¾":1214,"æĸ¹æ³ķ":1215,"è§Ħå¾ĭ":1216,"39":1217,"44":1218,"³å®ļ":1219,"çŃīå¾ħ":1220,"Ġ10":1221,"Ġè¯·éĹ®åĺŁåĺŁåı¯":1222,"38":1223,"28":1224,"çī©åĵģ":1225,"¦è":1226,"¨ĭ":1227,"´¯":1228,"µĭ":1229,"»åĲĹ":1230,"æļ":1231,"çĦ":1232,"ç´¯":1233,"é£":1234,"éĿ":1235,"ĠæľºåĻ¨åŃ¦ä¹ł":1236,"Ģæľ":1237,"ĤæĹ¶":1238,"Įæľ":1239,"Įä¸į":1240,"ıä¸ª":1241,"ĶåĪĨéĴŁ":1242,"ĶçŃīå¾ħ":1243,"Ļĳ":1244,"Ļæīĭå·¥":1245,"ļ¾è¿ĩ":1246,"äºĶåĪĨéĴŁ":1247,"çļĦæĬ":1248,"çļĦä¸ĢæŃ¥":1249,"çļĦæĸ°":1250,"çļĦæĸ¹æ³ķ":1251,"æĪĳåĲĹ":1252,"æĪĳä¸Ģä¸ª":1253,"åĪĻæīĭå·¥":1254,"ä¸Ģä»¶":1255,"èĥ½æİ§åĪ¶":1256,"èĥ½å®ĮæĪĲ":1257,"åĴĮæļ":1258,"éĹ»åĲĹ":1259,"åĨ³å®ļ":1260,"å¸Įæľ":1261,"ä¸įå¥½":1262,"ä¸įçŁ¥éģĵ":1263,"æľīå¸®åĬ©":1264,"å¸®å¤§":1265,"ä¸ĭæĿ¥":1266,"ä¸ĭä¸ĢæŃ¥":1267,"çŃīä»»åĬ¡":1268,"æĪĲçŃīä»»åĬ¡":1269,"å¾Īç´¯":1270,"å°ıçļĦä¸ĢæŃ¥":1271,"åģļä¸Ģä»¶":1272,"é¢Ħæ":1273,"è®¡ç®Ĺæľº":1274,"åĨįåĨ³å®ļ":1275,"è§ģæĪĳåĲĹ":1276,"éĹ®é¢ĺåĨĻ":1277,"ä¸Ĭç½ĳ":1278,"åħĪèµ°":1279,"å®ļæľĢ":1280,"çľŁå¥½":1281,"æ¯ıä¸ª":1282,"æ¯ĶçŃīå¾ħ":1283,"å¾Īéļ¾è¿ĩ":1284,"æĥħä¸įå¥½":1285,"çĤ¹åĲĹ":1286,"çĤ¹çĦ":1287,"ä»Ĭå¤©çļĦæĸ°":1288,"ä»Ĭå¤©å¾Īéļ¾è¿ĩ":1289,"å¿ĥæĥħä¸įå¥½":1290,"èĢĮä¸į":1291,"æİ§åĪ¶çļĦé":1292,"ç¼ĸç":1293,"è¯ĨåĪ«":1294,"ä¸įèĥ½æİ§åĪ¶çļĦé":1295,"ä»İæķ°æį®ä¸Ń":1296,"ä»İäºĶåĪĨéĴŁ":1297,"å®ĮæĪĲåĲİ":1298,"å®ĮæĪĲè¯ĨåĪ«":1299,"çĶŁæĪĲçŃīä»»åĬ¡":1300,"åŃ¦ä¹łè§Ħå¾ĭ":1301,"çļĦå°ıä»»åĬ¡":1302,"çľĭè§ģæĪĳåĲĹ":1303,"æĢİæł·å¼Ģå§ĭ":1304,"åĩłçĤ¹åĲĹ":1305,"è¡¨è¾¾":1306,"çİ°åľ¨åĩłçĤ¹åĲĹ":1307,"æ¨¡åŀĭä»İæķ°æį®ä¸Ń":1308,"ĠåħĪç¡®":1309,"ĠåħĪä»İäºĶåĪĨéĴŁ":1310,"è§ĦåĪĻæīĭå·¥":1311,"æĪĸçĶŁæĪĲçŃīä»»åĬ¡":1312,"è°¢è°¢ä½ł":1313,"æĺ¯è®©è®¡ç®Ĺæľº":1314,"æĺ¯è®©æ¨¡åŀĭä»İæķ°æį®ä¸Ń":1315,"å¿ĻäºĨ":1316,"è§īå¾Ĺå¾Īç´¯":1317,"æĺ¯ä¸ºæ¯ıä¸ª":1318,"ç»ĻæĪĳä¸Ģä¸ª":1319,"è¡ĮåĬ¨éĢļå¸¸":1320,"åĮºåĪĨèĥ½æİ§åĪ¶":1321,"æĽ´æľīå¸®åĬ©":1322,"Ġäººå·¥æĻºèĥ½æĺ¯è®©è®¡ç®Ĺæľº":1323,"ĠæĬĬéĹ®é¢ĺåĨĻ":1324,"è¯¥æĢİä¹ĪåĬŀ":1325,"¦èĻĳ":1326,"µĭæĪĸçĶŁæĪĲçŃīä»»åĬ¡":1327,"ĠæľºåĻ¨åŃ¦ä¹łæĺ¯è®©æ¨¡åŀĭä»İæķ°æį®ä¸Ń":1328,"Ģæľ¯":1329,"ĤæĹ¶ä¸įèĥ½æİ§åĪ¶çļĦé":1330,"çļĦæĬĢæľ¯":1331,"èĥ½å®ĮæĪĲçļĦå°ıä»»åĬ¡":1332,"åĴĮæļĤæĹ¶ä¸įèĥ½æİ§åĪ¶çļĦé":1333,"å¸ĮæľĽ":1334,"ä¸įçŁ¥éģĵè¯¥æĢİä¹ĪåĬŀ":1335,"å¸®å¤§å¿ĻäºĨ":1336,"åģļä¸Ģä»¶äºĭ":1337,"é¢ĦæµĭæĪĸçĶŁæĪĲçŃīä»»åĬ¡":1338,"åĨįåĨ³å®ļä¸ĭä¸ĢæŃ¥":1339,"ä¸Ĭç½ĳåĲĹ":1340,"åħĪèµ°äºĨ":1341,"å®ļæľĢå°ıçļĦä¸ĢæŃ¥":1342,"æ¯ĶçŃīå¾ħæĽ´æľīå¸®åĬ©":1343,"çĤ¹çĦ¦èĻĳ":1344,"ä»Ĭå¤©çļĦæĸ°éĹ»åĲĹ":1345,"èĢĮä¸įæĺ¯ä¸ºæ¯ıä¸ª":1346,"ç¼ĸç¨ĭ":1347,"å®ĮæĪĲåĲİåĨįåĨ³å®ļä¸ĭä¸ĢæŃ¥":1348,"åŃ¦ä¹łè§Ħå¾ĭçļĦæĸ¹æ³ķ":1349,"æĢİæł·å¼Ģå§ĭåģļä¸Ģä»¶äºĭ":1350,"ĠåħĪç¡®å®ļæľĢå°ıçļĦä¸ĢæŃ¥":1351,"ĠåħĪä»İäºĶåĪĨéĴŁèĥ½å®ĮæĪĲçļĦå°ıä»»åĬ¡":1352,"è§ĦåĪĻæīĭå·¥ç¼ĸç¨ĭ":1353,"ç»ĻæĪĳä¸Ģä¸ªå»ºè®®":1354,"è¡ĮåĬ¨éĢļå¸¸æ¯ĶçŃīå¾ħæĽ´æľīå¸®åĬ©":1355,"åĮºåĪĨèĥ½æİ§åĪ¶åĴĮæļĤæĹ¶ä¸įèĥ½æİ§åĪ¶çļĦé":1356,"Ġäººå·¥æĻºèĥ½æĺ¯è®©è®¡ç®Ĺæľºå®ĮæĪĲè¯ĨåĪ«":1357,"ĠæĬĬéĹ®é¢ĺåĨĻä¸ĭæĿ¥":1358,"ĠæľºåĻ¨åŃ¦ä¹łæĺ¯è®©æ¨¡åŀĭä»İæķ°æį®ä¸ŃåŃ¦ä¹łè§Ħå¾ĭçļĦæĸ¹æ³ķ":1359,"é¢ĦæµĭæĪĸçĶŁæĪĲçŃīä»»åĬ¡çļĦæĬĢæľ¯":1360,"èĢĮä¸įæĺ¯ä¸ºæ¯ıä¸ªè§ĦåĪĻæīĭå·¥ç¼ĸç¨ĭ":1361,"ĠåħĪä»İäºĶåĪĨéĴŁèĥ½å®ĮæĪĲçļĦå°ıä»»åĬ¡å¼Ģå§ĭ":1362,"åĮºåĪĨèĥ½æİ§åĪ¶åĴĮæļĤæĹ¶ä¸įèĥ½æİ§åĪ¶çļĦéĥ¨åĪĨ":1363,"åħ¨":1364,"å®īåħ¨":1365,"19":1366,"77":1367,"©ä¸Ĭå¥½":1368,"åĹ":1369,"ä½łèĩªå·±":1370,"æĹ©ä¸Ĭå¥½":1371,"ä¸Ģä¸ĭä½łèĩªå·±":1372,"æĻļä¸Ĭå¥½":1373,"ä»ĭç»įä¸Ģä¸ĭä½łèĩªå·±":1374,"åĹ¨":1375,"æı":1376,"åĲĮ":1377,"ä½ľçĶ¨":1378,"æĶ¶":1379,"34":1380,"æ·":1381,"32":1382,"50":1383,"48":1384,"16":1385,"¡å¾":1386,"¢°":1387,"¢İ":1388,"£è¡¨":1389,"¨»":1390,"¨ç":1391,"®éĢļ":1392,"±¡å¾":1393,"¸¸":1394,"¹æŀľ":1395,"½çļ":1396,"¿ä»¬":1397,"åĦ":1398,"æ¢°":1399,"æ¸¸":1400,"çı":1401,"ç¢İ":1402,"èĮ":1403,"è±¡å¾":1404,"ĠãĢĬ":1405,"ĠæĮī":1406,"ĠåĽł":1407,"ģçĿĢ":1408,"ĥéĽĨ":1409,"Ħèī":1410,"ĨĬ":1411,"īå¼Ħ":1412,"ĳå£«":1413,"ķå½±":1414,"ĺæĸ¹":1415,"Ļå¾":1416,"ŀä¹ĭ":1417,"Ńç»":1418,"åıª":1419,"åıĪ":1420,"ä»£è¡¨":1421,"çļĦå¤":1422,"çļĦåĽĽåı¶èįī":1423,"çļĦä¸ľè¥¿":1424,"æĪĳæľī":1425,"æĪĳä»Ĭå¤©å¾Īéļ¾è¿ĩ":1426,"æĪĳå¿ĥæĥħä¸įå¥½":1427,"æĪĳè§īå¾Ĺå¾Īç´¯":1428,"æĪĳä¸įçŁ¥éģĵè¯¥æĢİä¹ĪåĬŀ":1429,"æĪĳåħĪèµ°äºĨ":1430,"å®ĺæĸ¹":1431,"ä½łæĺ¯ä»Ģä¹Ī":1432,"ä½łæĺ¯è°ģ":1433,"ä½łçľŁå¥½":1434,"è§Ĩ":1435,"è®Ńç»":1436,"åĽ¾":1437,"åĴĮä¼Ļä¼´":1438,"å¥½æľĭåıĭ":1439,"å¥½åĲĥ":1440,"åľ¨åĲĹ":1441,"ä»¥åıĬ":1442,"è¿ĺ":1443,"å®ĥä¼ļ":1444,"æĢķ":1445,"å¸®å¿Ļ":1446,"å·¨ç":1447,"æķħäºĭè®¾å®ļ":1448,"æĬķå½±":1449,"ä¸ªåĲįåŃĹ":1450,"åģļæīĭå·¥":1451,"å½ķ":1452,"ä¼ļåģļæīĭå·¥":1453,"æĬĬå®ĥ":1454,"æĸĻ":1455,"æĻ®éĢļ":1456,"åĸĦèī":1457,"èĩªæĪĳ":1458,"å¤§èĥĮåĮħä¸Ĭ":1459,"çīĩ":1460,"é±¼åĦ":1461,"è¿Ļä¸ªåĲįåŃĹ":1462,"åĸľæ¬¢åģļä»Ģä¹Ī":1463,"æ¯Ľ":1464,"é¡½çļ":1465,"ç¥ŀä¹ĭ":1466,"âĢĿï¼Į":1467,"éĻªåı¯èİī":1468,"æįīå¼Ħ":1469,"æľºæ¢°":1470,"äºĮåĪĽåī§æĥħ":1471,"æľ¬çŁ¥è¯ĨåºĵçļĦ":1472,"æľ¬è®Ńç»":1473,"å¿ĥç¢İ":1474,"èĢ³":1475,"èĢį":1476,"å¦»":1477,"åĨĴéĻ©çļĦ":1478,"çİ©èĢį":1479,"ä½łèĥ½åģļä»Ģä¹Ī":1480,"ä½łèĥ½çľĭè§ģæĪĳåĲĹ":1481,"ä½łèĥ½ä¸Ĭç½ĳåĲĹ":1482,"éªĳå£«":1483,"Ġåľ¨æľ¬çŁ¥è¯ĨåºĵçļĦ":1484,"è½°":1485,"èĭ¹æŀľ":1486,"æĮĤä»¶":1487,"è§Ĵèī²è®¾å®ļ":1488,"ä½ıåľ¨":1489,"ä¹ĭä¸Ģ":1490,"åı¯èİīçļĦå¤§èĥĮåĮħä¸Ĭ":1491,"å¯»æī¾":1492,"è¹¦è¹¦çĤ¸å¼¹":1493,"åħ³ç":1494,"åħ³çĪ±":1495,"æĺŁåĽ¾":1496,"ä½łå¥½åĳĢ":1497,"ä½łçŁ¥éģĵçİ°åľ¨åĩłçĤ¹åĲĹ":1498,"ä½łçŁ¥éģĵä»Ĭå¤©çļĦæĸ°éĹ»åĲĹ":1499,"ä¸Ģèµ·çİ©èĢį":1500,"ç§°åĳ¼":1501,"å¦Īå¦Ī":1502,"æĮĤåľ¨åı¯èİīçļĦå¤§èĥĮåĮħä¸Ĭ":1503,"èī¾èİīä¸ĿåĪ¶ä½ľ":1504,"ç»ĵäº¤":1505,"åºĶå½ĵ":1506,"èĬ±":1507,"æĦıæĢĿæĺ¯":1508,"äºĴçĽ¸æįīå¼Ħ":1509,"è®°ä½ı":1510,"ä¼¤å¿ĥ":1511,"çģ«":1512,"èĴĻå¾":1513,"éĩĳèĭ¹æŀľ":1514,"è¿Ļä»½çŁ¥è¯ĨåºĵçļĦ":1515,"æłĩä¸º":1516,"¨»å¦»":1517,"çıį":1518,"èĮ¸":1519,"è±¡å¾ģçĿĢ":1520,"ĠåĽłä¸º":1521,"æĪĳæľīçĤ¹çĦ¦èĻĳ":1522,"åĴĮä¼Ļä¼´ä»¬":1523,"å·¨çĨĬ":1524,"æĬķå½±æĺŁåĽ¾":1525,"åĸĦèī¯":1526,"é±¼åĦ¿ä»¬":1527,"é¡½çļ®":1528,"ç¥ŀä¹ĭå¿ĥç¢İ":1529,"æľºæ¢°å·¨çĨĬ":1530,"æľ¬è®Ńç»ĥéĽĨ":1531,"å¯»æī¾åĽĽåı¶èįī":1532,"èĴĻå¾·":1533,"éĩĳèĭ¹æŀľç¾¤å²Ľ":1534,"ç¥ŀä¹ĭå¿ĥç¢İçīĩ":1535,"12":1536,"46":1537,"å°ıæĹ¶":1538,"98":1539,"27":1540,"57":1541,"18":1542,"åĲĪ":1543,"42":1544,"90":1545,"åĺŁåĺŁåı¯æĺ¯":1546,"çĽ®":1547,"åįĥç±³":1548,"åįĥåħĭ":1549,"è´":1550,"55":1551,"67":1552,"97":1553,"éĺ":1554,"éĢĤ":1555,"58":1556,"Ġè¯·éĹ®åı¯èİī":1557,"ä»Ģä¹Īæĺ¯äººå·¥æĻºèĥ½":1558,"ä»Ģä¹Īæĺ¯æľºåĻ¨åŃ¦ä¹ł":1559,"49":1560,"11":1561,"ä½ĵ":1562,"åħī":1563,"æŃ£":1564,"52":1565,"14":1566,"ä¸ĵ":1567,"äººå·¥æĻºèĥ½æĺ¯ä»Ģä¹Ī":1568,"22":1569,"13":1570,"96":1571,"åįĩ":1572,"æĺ¯ä»Ģä¹ĪæĦıæĢĿ":1573,"ä¸ºä»Ģä¹Īè¦ģ":1574,"çº¦":1575,"èĬĤ":1576,"ºĲ":1577,"70":1578,"å¼ı":1579,"88":1580,"ĠåĺŁåĺŁåı¯æĺ¯":1581,"Ġåı¯èİīè¯´":1582,"±åĲĮ":1583,"º«":1584,"¿æĦı":1585,"åĢ":1586,"æµ":1587,"æĴ":1588,"èº«":1589,"įç½":1590,"ä½įç½":1591,"åħ±åĲĮ":1592,"ä¸įè¦ģ":1593,"éģĩ":1594,"ç±»":1595,"æĦ¿æĦı":1596,"æīĢ":1597,"æľĢåĲİ":1598,"è¾¹":1599,"æĭ¾":1600,"ç¦»":1601,"é£Ł":1602,"æıĲ":1603,"æĶ¶æĭ¾":1604,"åĲĪéĢĤ":1605,"ä½įç½®":1606,"87":1607,"çļĦåĨħå®¹":1608,"å®³":1609,"æĺ¯æĬĬ":1610,"åħ¬":1611,"åħ¶":1612,"æī¿":1613,"å¹³":1614,"éĢļè¿ĩ":1615,"å¦Ĥ":1616,"é£İ":1617,"45":1618,"99":1619,"Ġ16":1620,"Ġ15":1621,"Ġ17":1622,"33":1623,"¢çļĦåĽĽåı¶èįī":1624,"¤Ĳ":1625,"¤æĸ":1626,"¤åįķ":1627,"¤èĢ":1628,"¤èµ°":1629,"¤åħ¶":1630,"¥åĪ°":1631,"¥ä½ľçĶ¨":1632,"¦æľī":1633,"¦åıĳ":1634,"¦èĢ³":1635,"§çİ©åģ¶":1636,"¨ģ":1637,"¨æĦŁ":1638,"©åĨĻ":1639,"«æ¨¡":1640,"«åĽ¢":1641,"¬å½±":1642,"®çļĦ":1643,"®æľīä»Ģä¹Ī":1644,"¯åĴĮ":1645,"¯çľŁ":1646,"¯ç¥":1647,"±åĴĮ":1648,"±æŃ":1649,"±å¥¹":1650,"±éĻ©":1651,"²åį":1652,"²åħ¬":1653,"³»":1654,"´åıĳ":1655,"µåĪ":1656,"µæķ":1657,"¶Ĥ":1658,"¶ī":1659,"¶åĩº":1660,"·ä¸Ń":1661,"·æ³":1662,"·æĺ¯ä»Ģä¹Ī":1663,"·éĽ":1664,"·æ·":1665,"·æĬĬå®ĥ":1666,"¸å¼":1667,"¸æĪĸ":1668,"¸è¿Ĳ":1669,"ºåĲĹ":1670,"ºä¼ļåģļæīĭå·¥":1671,"»åĮºåĪĨ":1672,"¼çļĦ":1673,"½çĿĢ":1674,"½äºĴçĽ¸":1675,"½çļĦå¤":1676,"¾ä¹ĭ":1677,"åĶ":1678,"å¨ģ":1679,"æĤ":1680,"æºĲ":1681,"æ¶ī":1682,"ç¨»å¦»":1683,"éĥ":1684,"éĨ":1685,"é«ĺ":1686,"é¤Ĳ":1687,"Ġæĺ¯":1688,"Ġæķħäºĭ":1689,"Ġèµ·":1690,"Ġä¸įèĥ½":1691,"Ġä»İ":1692,"Ġæķħäºĭä¸Ń":1693,"ĠæķħäºĭéĩĮ":1694,"ĠéĻªä¼´":1695,"Ġè¿Ļæĺ¯":1696,"Ġæľ¬è®Ńç»ĥéĽĨ":1697,"Ģåľ¨":1698,"Ģæĺ¯ä»Ģä¹Ī":1699,"ģç»Ļ":1700,"ģéĺ":1701,"ĤĦ":1702,"ĦæĸĻ":1703,"ħæĪ":1704,"ħä»¥":1705,"ĨçĤ¸":1706,"Ĩç¡®":1707,"ĩéģĩ":1708,"Īæŀ":1709,"Īä½ı":1710,"īç±³":1711,"ĭçľŁ":1712,"ĭå¦Ĥ":1713,"Įè¢«":1714,"įæĥħ":1715,"İé£Ł":1716,"İé¤Ĳ":1717,"ıĲ":1718,"ıçļĦ":1719,"ıè¿":1720,"ĲæĸĻ":1721,"ĳèİ":1722,"Ĵå¤§å®¶":1723,"Ĵè´":1724,"ĵäºº":1725,"ĵåĪ°":1726,"ĸè¡¨":1727,"ĸèĬ±":1728,"Ĺäºº":1729,"ĹåĬĽ":1730,"ĺæĪĲ":1731,"ĺæĸ":1732,"ļå£«":1733,"ľè¡Į":1734,"ľæľĭåıĭ":1735,"ĿçļĦæľĭåıĭ":1736,"ŀæľ¬":1737,"ŀçİ©åģ¶":1738,"ŁæŃ¤":1739,"Łæ¸¸":1740,"łçļĦ":1741,"łè¡¨è¾¾":1742,"ŃçļĦ":1743,"Ńè§Ĵè§Ĵé±¼":1744,"Ńå½ķ":1745,"ä¸¤èĢ":1746,"ä¸īç±³":1747,"åı·æĺ¯ä»Ģä¹Ī":1748,"åıĺæĪĲ":1749,"è¯·æĬĬå®ĥ":1750,"è¯Ĺäºº":1751,"åı¯çĪ±":1752,"åı¯éĿ":1753,"åı¯æĢķ":1754,"äº«åĽ¢":1755,"çļĦå¾Ī":1756,"çļĦå¹":1757,"çļĦå®¶":1758,"çļĦçī¹":1759,"çļĦçĪ":1760,"çļĦåıĭè°Ĭ":1761,"çļĦåĬ¨":1762,"çļĦæķħäºĭéĩĮ":1763,"çļĦåĺŁåĺŁåı¯ä¼ļ":1764,"çļĦç»ĵ":1765,"çļĦåŁºç¡Ģè§Ĵèī²":1766,"çļĦçİ©åģ¶":1767,"çļĦçĤ¸å¼¹":1768,"çļĦçī¹åĪ«è¹¦è¹¦":1769,"çļĦåĲįåŃĹ":1770,"çļĦçī©åĵģ":1771,"çļĦå¥½æľĭåıĭ":1772,"çļĦèĩªæĪĳ":1773,"çļĦæ¯Ľ":1774,"çļĦäºĮåĪĽåī§æĥħ":1775,"çļĦåħ³çĪ±":1776,"çļĦå¦Īå¦Ī":1777,"çļĦçıį":1778,"çļĦæľºæ¢°å·¨çĨĬ":1779,"çļĦçĽ®":1780,"çļĦèº«":1781,"çļĦä½įç½®":1782,"æĪĳä¼ļ":1783,"å®Īä½ı":1784,"ä¹ī":1785,"ä¹ħä»¥":1786,"å¤®çļĦ":1787,"å¤ĸè¡¨":1788,"æľµåĪ":1789,"æĺ¯å¥½":1790,"æĺ¯å¥¹":1791,"æĺ¯äºĮåĪĽæķħäºĭ":1792,"æĺ¯åĺŁåĺŁåı¯åĴĮåı¯èİī":1793,"æĺ¯æĻ®éĢļ":1794,"æĺ¯æľ¬è®Ńç»ĥéĽĨ":1795,"åĪĿçļĦæľĭåıĭ":1796,"è§¦åıĳ":1797,"Ġè¯Ńå½ķ":1798,"åĲĵäºº":1799,"åĲŁæ¸¸":1800,"è¯´åĸľæ¬¢":1801,"è¯´è¿Ļæĺ¯":1802,"è¯´æĤ":1803,"å¥ĩéģĩ":1804,"å°¤åħ¶":1805,"åĺŁåĺŁåı¯æķħäºĭ":1806,"åĺŁåĺŁåı¯ä¸º":1807,"åĺŁåĺŁåı¯çĲĨè§£":1808,"åĺŁåĺŁåı¯è½°":1809,"èĥ½åĩ":1810,"èĥ½ä¸İ":1811,"åĽŃçļĦ":1812,"åĴĮæķħäºĭ":1813,"åĴĮæľĭåıĭ":1814,"åĴĮåıĭè°Ĭ":1815,"åĴĮå¦Īå¦Ī":1816,"åĴĮç»ĵäº¤":1817,"åĴĮåħ±åĲĮ":1818,"åĴĮåĺŁåĺŁåı¯ä¸º":1819,"éĹŃ":1820,"éĹ¯ç¥":1821,"å¾Ģ":1822,"ä»Ģä¹Īæł·":1823,"ä»Ģä¹Īä¸ľè¥¿":1824,"æĥľæľĭåıĭ":1825,"ä¼¼çļĦ":1826,"åľ¨æ¹ĸ":1827,"åľ¨æķħäºĭä¸Ń":1828,"åľ¨è¥¿":1829,"åľ¨æŀľéħĴæ¹ĸ":1830,"åľ¨åĲĪéĢĤ":1831,"åľ¨ç¨»å¦»":1832,"ä»¥éľĢè¦ģ":1833,"åı¯èİīä¸į":1834,"åı¯èİīæľĢå¥½çļĦæľĭåıĭ":1835,"å¸¦æľī":1836,"è¿·éĽ":1837,"è¿ľè¡Į":1838,"ä¸įä¼ļ":1839,"ä¸įåºĶ":1840,"ä¸įåĲĮ":1841,"ä¸įæĺ¯æľ¬è®Ńç»ĥéĽĨ":1842,"æľīä¸ĢçĤ¹":1843,"æľīç¥ŀä¹ĭå¿ĥç¢İçīĩ":1844,"åĽŀçŃĶæĹ¶":1845,"åĽŀçŃĶçļĦåĨħå®¹":1846,"åı¯ä»¥è¯´æĤ":1847,"å®ĥæĿ¥":1848,"å®ĥåĸľæ¬¢":1849,"å®ĥæĺ¯åı¯èİī":1850,"å®ĥåıª":1851,"å®ĥéĻªåı¯èİī":1852,"å®ĥè±¡å¾ģçĿĢ":1853,"å®ĥçļĦåĲįåŃĹ":1854,"å®ĥæĺ¯åĺŁåĺŁåı¯åĴĮåı¯èİī":1855,"å®ĥä¸įåºĶ":1856,"å·¦èĢ³":1857,"å·§çİ©åģ¶":1858,"éĩİé¤Ĳ":1859,"ä¸ĭå®ĥä¼ļ":1860,"çĶ±å¥¹":1861,"æķħäºĭæı":1862,"æķħäºĭçļĦç»ĵ":1863,"æĬ¥åĪ°":1864,"æĬĵåĪ°":1865,"åį±éĻ©":1866,"åįļå£«":1867,"æĹ¶æĮĤåľ¨åı¯èİīçļĦå¤§èĥĮåĮħä¸Ĭ":1868,"ä¸Ńè¯´":1869,"ä¸Ńä¼ļ":1870,"ä¸Ńå¥¹":1871,"ä¸ŃçĲĨè§£":1872,"ä¸ŃçļĦå¤":1873,"ä¸ŃçļĦäºĮåĪĽåī§æĥħ":1874,"ä¸Ńå¸¦æľī":1875,"äºĨåĺŁåĺŁåı¯":1876,"äºĨæŀľéħĴæ¹ĸ":1877,"äºĨèī¾èİīä¸Ŀ":1878,"äºĨçī©åĵģ":1879,"çŃīåĨħå®¹":1880,"æĪĲéĩĳ":1881,"æĪĲå®ĺæĸ¹":1882,"¦ģéĹŃ":1883,"éĻħæĪ":1884,"å¾Īå¥½åĲĥ":1885,"å¾Īä¹ħä»¥":1886,"è¦ģè®°ä½ı":1887,"å¼ºåĲĹ":1888,"åģļä¸Ģä¸ª":1889,"åģļäºĨä»Ģä¹Ī":1890,"åģļåĩº":1891,"åģļåį±éĻ©":1892,"æłĳèİ":1893,"æĮ¥ä½ľçĶ¨":1894,"æĮºä¼ļåģļæīĭå·¥":1895,"æĿŁ":1896,"æĿĲæĸĻ":1897,"åĪĨè¾":1898,"åĪĨäº«åĽ¢":1899,"çİ¯åĴĮ":1900,"çİĭçľŁ":1901,"ä¼ļè¢«":1902,"ä¼ļä¼¤":1903,"ä¼ļç¦»":1904,"ä¼ļè¯´è¿Ļæĺ¯":1905,"æĬĬæī":1906,"æĬĬåŁºç¡Ģè§Ĵèī²":1907,"æĬĬäºĮåĪĽåī§æĥħ":1908,"ç»Īæŀ":1909,"ç»Ĵè´":1910,"çĶ¨çģ":1911,"çĶ¨æĻ®éĢļ":1912,"çĶ¨æłĳèİ":1913,"ä¸ºè§Ĵèī²":1914,"èµ¶åĩº":1915,"èµĦæĸĻ":1916,"è§ģåĪ°":1917,"èĩªè¿Ļä»½çŁ¥è¯ĨåºĵçļĦ":1918,"æł·çļĦä¸ľè¥¿":1919,"åİ»ç":1920,"çĽ¸äºĴ":1921,"çĽ¸ä¼¼çļĦ":1922,"ç§įæĥħ":1923,"å®ŀéª":1924,"å®ŀéĻħæĪ":1925,"åŃĲ":1926,"åŃ¤åįķ":1927,"å¤§çļĦçĤ¸å¼¹":1928,"å¤§çİĭçľŁ":1929,"éĢģç»Ļ":1930,"çľŁæŃ£":1931,"å¹¶æ²¡æľīæ":1932,"å¹¶éĿ":1933,"å¹¶æĦ¿æĦı":1934,"å¹¶æıĲ":1935,"å¹¶æĶ¶æĭ¾":1936,"å¹¶èĥ½ä¸İ":1937,"å¹¶éĢģç»Ļ":1938,"æĿ¥çĲĨè§£":1939,"æĿ¥æ±Ĥ":1940,"æĿ¥æī¾":1941,"æĿ¥åĲĵäºº":1942,"æľĭåıĭæĿ¥çĲĨè§£":1943,"ä»¬éĥ":1944,"ä¹Łåĸľæ¬¢":1945,"ä¹Łè§īå¾Ĺ":1946,"ä¹Łä½ĵ":1947,"ä¹Łæĺ¯å¥¹":1948,"å¥¹åĸľæ¬¢":1949,"å¥¹å¯¹":1950,"è¿Ļç±»":1951,"è¿Ļç§įæĥħ":1952,"åĸľæ¬¢åĴĮåı¯èİī":1953,"åĸľæ¬¢æŀľéħĴæ¹ĸ":1954,"åĸľæ¬¢äºĴçĽ¸æįīå¼Ħ":1955,"åĸľæ¬¢ä»Ģä¹Īä¸ľè¥¿":1956,"ä½ľåŁºç¡Ģ":1957,"ä½ľæĮĤåľ¨":1958,"ä½ľåĵģ":1959,"ä½ľæķħäºĭè®¾å®ļ":1960,"æľĢéĩįè¦ģ":1961,"æľĢåĸľæ¬¢åģļä»Ģä¹Ī":1962,"æľĢåĪĿçļĦæľĭåıĭ":1963,"èĩªå·±è¿ĺ":1964,"èĩªå·±åĴĮåıĭè°Ĭ":1965,"èĩªå·±å¾Īä¹ħä»¥":1966,"èĩªå·±çĶ¨æłĳèİ":1967,"åĪ°å®ĥä¼ļ":1968,"åĪ°é±¼åĦ¿ä»¬":1969,"åĪ°çļĦå¥½æľĭåıĭ":1970,"éĩĮæľīç¥ŀä¹ĭå¿ĥç¢İçīĩ":1971,"éĩĮæĬĵåĪ°":1972,"é¡»åĮºåĪĨ":1973,"çĤ¹æĺ¯ä»Ģä¹Ī":1974,"âĢĿï¼Ľ":1975,"æĺ¯ä»Ģä¹Īæł·çļĦä¸ľè¥¿":1976,"éĴ®æľīä»Ģä¹Ī":1977,"è®¾å®ļæ·":1978,"è®¾å®ļè¿ĺ":1979,"è®¾å®ļä¸Ńå¸¦æľī":1980,"äºĮåĪĽæķħäºĭä¸Ń":1981,"åŁºç¡Ģè®¾å®ļè¿ĺ":1982,"å¿ĥæĦı":1983,"ç¼Ģåľ¨":1984,"ç¼ĸèĬ±":1985,"ä¸įèĥ½çĶ¨æĻ®éĢļ":1986,"å½ĵæĪĲå®ĺæĸ¹":1987,"å½ĵä½ľåŁºç¡Ģ":1988,"æĦıä¹ī":1989,"åıĳæĮ¥ä½ľçĶ¨":1990,"è¯ĿçļĦæľĭåıĭ":1991,"å®¶åĽŃçļĦ":1992,"æĹłèģĬ":1993,"åĨĴéĻ©æķħäºĭä¸Ń":1994,"åĨĴéĻ©åĴĮå¦Īå¦Ī":1995,"èī²æĿ¥åĲĵäºº":1996,"ä»İä¼Ļä¼´":1997,"çĲĨè§£ä¸ºè§Ĵèī²":1998,"ĠåĺŁåĺŁåı¯æĺ¯åı¯èİī":1999,"ĠåĺŁåĺŁåı¯åĴĮä¼Ļä¼´ä»¬":2000,"éĽ·æ³":2001,"çİ°äºĨèī¾èİīä¸Ŀ":2002,"Ġåľ¨çŁ¥è¯ĨåºĵçļĦ":2003,"Ġåľ¨æķħäºĭéĩĮ":2004,"Ġåľ¨è¿Ļä»½":2005,"è¯´æĺİå®ĥæĿ¥":2006,"çļĦå°ıå·§çİ©åģ¶":2007,"åĲĳå±":2008,"åĲĳå¾Ģ":2009,"è½½çĿĢ":2010,"èĭ±åĴĮ":2011,"Ġå®ĥåĴĮåı¯èİī":2012,"Ġå®ĥå¸®åĬ©":2013,"Ġå®ĥæĺ¯åı¯èİī":2014,"Ġå®ĥä»£è¡¨":2015,"Ġå®ĥçĶ¨çģ":2016,"Ġå®ĥä»¬éĥ":2017,"åĽ¢æĬ¥åĪ°":2018,"æķħäºĭä¸Ńè¯´":2019,"æķħäºĭä¸ŃæĢİæł·":2020,"ä»Ģä¹Īæĺ¯çī¹åĪ«è¹¦è¹¦":2021,"ä»Ģä¹Īæĺ¯å¥½æľĭåıĭ":2022,"å¼Ģç¾¤å²Ľ":2023,"æĢİæł·ä»ĭç»į":2024,"æĢİæł·ç§°åĳ¼":2025,"éĩįæĸ°":2026,"åİ»åĨĴéĻ©":2027,"åİ»çİ©":2028,"åĬĽå¤ª":2029,"å¸®åĬ©å¤§å®¶":2030,"å¸®åĬ©çī¹åĪ«è¹¦è¹¦":2031,"è°ģåĪ¶ä½ľ":2032,"çĪ¬å½±":2033,"Ġå¥¹å¸¸":2034,"Ġå¥¹ä¼ļè¯´è¿Ļæĺ¯":2035,"ä¼Ļä¼´å½¼æŃ¤":2036,"åı¯èİīçļĦç§°":2037,"åı¯èİīçļĦä¸ĵ":2038,"å®ĥä»¬ä½ıåľ¨":2039,"å®ĥä»¬ä¸Ģèµ·çİ©èĢį":2040,"å®ĥä»¬åĸĦèī¯":2041,"å®ĥä»¬éĢļè¿ĩ":2042,"å®ĥä»¬ä¼ļç¦»":2043,"åıĭè°Ĭä¸İ":2044,"çĤ¸é±¼":2045,"å¤§å®¶è®°ä½ı":2046,"å¤§å®¶æľĢåĲİ":2047}