#version: 0.2
č Ċ
ï ¼
ã Ģ
ä ¸
ãĢ Ĥ
ï¼ Į
B o
U s
e r
Bo t
Us er
å ı
è ¯
ä »
æ Ī
ï¼ Ł
åı ¯
ä º
ç ļ
çļ Ħ
æĪ ĳ
ĺ Ł
ä ½
å ĺŁ
å ®
ä ¹
å ¤
æ ĺ
æ ľ
ä½ ł
æĺ ¯
å Ī
è §
Ġ è¯
Ġè¯ ·
å Ĳ
Ġ æĪĳ
è¯ ´
ä¹ Ī
ä¸ Ģ
ç Ń
è ĥ
å ¥
å °
è ®
åĺŁ åı¯
åĺŁ åĺŁåı¯
èĥ ½
å Ľ
å Ĵ
åĴ Į
é Ĺ
å ¾
è İ
Ģ ä¹Ī
ä» Ģä¹Ī
æ ĥ
å ħ
å Ĭ
å ľ
ä ¼
å¥ ½
èİ ī
åľ ¨
ç ®
æ Ĺ
ä» ¥
å Ĩ
éĹ ®
åı¯ èİī
å ¸
äº ĭ
è ¿
ä¸ į
å° ĳ
ļ å°ĳ
å¤ ļå°ĳ
çŃ Ķ
æ ķ
ç Ł
çŁ ¥
æľ ī
ãĢ ģ
åĽ ŀ
åĽŀ çŃĶ
æĥ ³
åı¯ ä»¥
å® ĥ
å ĳ
æ Ģ
å¸ ®
å ·
é ĩ
å¤ ©
è °
ä¸ ĭ
æķ ħ
ç Ķ
æķħ äºĭ
Ĭ å¤©
ç® Ĺ
æ Ĭ
è ģ
é ģ
åĲ Ĺ
å į
æĹ ¶
å ģ
çŁ¥ éģ
çŁ¥éģ ĵ
ä¸ Ń
äº Ĩ
çŃ ī
æĪ Ĳ
æ ¬
¦ ģ
é Ļ
â Ģ
å¾ Ī
ç Ľ
è ¦ģ
ç ľ
ç ±
Ġ 1
å ĩ
å ¼
ä¸ ª
å° ı
åģ ļ
Ġ ä½ł
å ¿
ç± ³
é ¢
æ ł
è ¡
æ Į
å ½
æ Ŀ
æ Ħ
åĪ Ĩ
ç İ
æĢ İ
åı ĭ
è® ¡
ä¼ ļ
ï¼ ļ
ĠæĪĳ æĥ³
æĬ Ĭ
è®¡ ç®Ĺ
æ ĸ
æ Ļ
ç »
æ Ń
çĶ ¨
ç Ĥ
ä¸ º
è§ Ĵ
ç Ĳ
åĨ į
æ ī
è µ
è§ ģ
éĹ® é¢
éĹ®é¢ ĺ
äº İ
ä¸ Ĭ
çŃī äºİ
çŃīäºİ å¤ļå°ĳ
åħ Ī
è¯´ è¯´
è ī
èģ Ĭå¤©
å ¹
è§ £
åį ķ
å® ļ
å ĸ
è ĩ
èĩ ª
äº º
Ĭ è¯
æł ·
åĳ Ĭè¯
åĳĬè¯ ī
0 0
è° ¢
å İ
çĽ ¸
åĳĬè¯ī æĪĳ
Ģ åįķ
ç® Ģåįķ
ç §
å® ŀ
å Ń
å¤ §
é Ģ
ç ¡
ä¸Ģ ä¸ĭ
å¸® æĪĳ
çľ Ł
å ŀ
å ¯
åŀ ĭ
åĬ ł
ç ī
åĪ ¶
æ İ
å¹ ¶
è¡ Į
æĿ ¥
æĺ¯ å¤ļå°ĳ
ĭ åıĭ
æľ ĭåıĭ
± ¼
¹ ¦
è ¹¦
é ±¼
ľ æ¬
ä» ¬
ä¹ Ł
å¥ ¹
è¿ Ļ
åĸ ľæ¬
åĸľæ¬ ¢
çĲ Ĩ
æ ³
æ ¯
Ġ èĥ½
ä½ ľ
Ġè¯· è®¡ç®Ĺ
å· ¥
ä ¿
å¾Ī é
æĥ ħ
æĢİ ä¹Ī
ç Ŀ
æľ Ģ
Ġ 2
åĬ ©
å· ±
èĩª å·±
Ġè¯· éĹ®
» ç
åĪ °
éĩ Į
é ¡
çĤ ¹
ç ¥
ä¼ ´
âĢ ľ
âĢ Ŀ
Ġä½ł å¥½
å º
æĺ¯ ä»Ģä¹Ī
éĻ ª
ä» Ĭå¤©
æ į
Ġ 4
æĺ İ
å¾ Ĺ
æ¬ ¡
éĢ ļ
æ³ ķ
« ĺ
ä¹ ĺ
äº Į
èµ ·
é Ĵ
Ġ 3
æ ŀ
éĻ ©
å Ł
¾ å®ļ
æľ º
åĪ Ľ
è® ¾å®ļ
äºĮ åĪĽ
ä» »
è¿ ĩ
º ç¡
æľ ¬
æŃ ¥
åŁ ºç¡
åŁºç¡ Ģ
å® ī
è ¾
å¿ ĥ
è Ģ
å Į
æĸ ¹
´ åĴĮ
æĻ ļ
æī ĭ
§ åĪ¶
åĪ «
æİ §åĪ¶
åĩ ı
å¾Īé «ĺ
å¾Īé«ĺ åħ
å ī
ç ¼
è¯ Ĩ
è§ ī
ä¸į èĥ½
å½ ĵ
åĪĨ éĴ
åĪĨéĴ Ł
ä½ł èģĬå¤©
ĠæĪĳæĥ³ çŁ¥éģĵ
Ġèĥ½ è¯´è¯´
æĦ Ł
æŀ ľ
å ¦
æĦ ı
Ĵ éĻ©
åı ĳ
è¯ Ŀ
å® ¶
æĹ ł
åĨ ĴéĻ©
çİ ©
èī ²
ä» İ
Į æĪĲ
å® ĮæĪĲ
ä¹ ł
ä½ł èĥ½
çĲĨ è§£
æ ģ
æģ ¯
Ġ åĳĬè¯īæĪĳ
Ġè¯· åĽŀçŃĶ
å Ļ
çĶ Ł
åĻ ¨
é ľ
éľ Ģ
Ġ åĺŁåĺŁåı¯
åĳ Ģ
ä¿ ¡
éľĢ è¦ģ
å ĵ
ç ½
åŃ ¦
é ª
ä¸Ģ ä¸ª
åŃ¦ ä¹ł
é Ľ
çİ °
Ġ åľ¨
è¯´ æĺİ
¨ ¡
æ ¨¡
Ġ ä¸į
çļĦ å°ı
åĲ ĳ
çĿ Ģ
¹ ĸ
æ ¹ĸ
è ½
è ĭ
Ġ å®ĥ
Ŀ ä½ł
çļĦ è¯Ŀ
åĽ ¢
åĴĮ åı¯èİī
æķħäºĭ ä¸Ń
æĮ Ĥ
è§Ĵ èī²
çī ¹
ç¥ Ŀä½ł
æĹł æ³ķ
Ġ 7
ä»Ģä¹Ī æĺ¯
Ġ å¸®æĪĳ
å¼ Ģ
çľ ĭ
æĢİ æł·
ĠæĪĳ æĺ¯
éĩ į
Ġ 5
åĩ ł
äº Ľ
åİ »
Ġ é
æ Ķ
ĠæĪĳ æľī
åĬ Ľ
èģ Ĭ
Ġ 8
Ġ åı¯ä»¥
º èĥ½
ĸ ç
çļĦ é
å¸® åĬ©
ä¸ĭ æ¬¡
è¡ ¨
æĻ ºèĥ½
åĨį è§ģ
äºº å·¥
æĻļ å®ī
ç½ ĳ
çİ° åľ¨
ä¸ĭæ¬¡ è§ģ
äººå·¥ æĻºèĥ½
Ġ 6
º »ç
ĥ ¦
Ġè¯· çĶ¨
Ġè¯· å¸®æĪĳ
ĠæĪĳ éľĢè¦ģ
è° ģ
åģļ ä»Ģä¹Ī
çļĦè¯Ŀ è¯´
Ġé º»ç
Ġéº»ç ĥ¦
é ħ
åĽ Ľ
æ¨¡ åŀĭ
¥ ¿
¶ è
ç Ī
è ¥¿
Ġ å¥¹
į ī
Ĵ æ¹ĸ
ĵ çļĦ
ĺ ç±³
Ļ ä¼´
ãĢ Ĭ
ãĢ ĭ
åı ¶è
çļĦ æľĭåıĭ
ä½ ı
ä¹ ĭ
åħ ĭ
ä¼ Ļä¼´
åı¯èİī çļĦ
çŁ¥ è¯Ĩ
å®ĥ ä»¬
åĳ ¼
è° Ĭ
äºĨ ä»Ģä¹Ī
åıĭ è°Ĭ
çĤ ¸
åİ ĺç±³
å¤§ å®¶
å¯ »
è¹¦ è¹¦
åº ĵçļĦ
äºĮåĪĽ æķħäºĭ
æŀľ éħ
çī¹ åĪ«
åĽĽ åı¶è
çŁ¥è¯Ĩ åºĵçļĦ
æŀľéħ Ĵæ¹ĸ
åĽĽåı¶è įī
Ġ 9
º è®
» ºè®
å »ºè®
å»ºè® ®
Ġ åħĪ
åĬ ¡
ä»» åĬ¡
æ ĭ
§ ĭ
å §ĭ
æĺ¯ è®
è§ Ħ
å¼Ģ å§ĭ
æĪ ĸ
å¼ Ħ
Ġ åı¯èİī
ä¸Ģ æŃ¥
è°¢ è°¢
Ġä½łå¥½ åĳĢ
æĺ¯è® ©
é ķ
åĬ ¨
éķ ¿
æ ²
ä½ł æĥ³
ĠæĪĳ åľ¨
ä¸Ĭ å¥½
æĢİä¹Ī æł·
ä»Ĭå¤© è¿ĩ
å¾Ĺ æĢİä¹Īæł·
´åĴĮ ä½łèģĬå¤©
å¾Īé«ĺåħ ´åĴĮä½łèģĬå¤©
èģĬ ä»Ģä¹Ī
ä½łæĥ³ èģĬä»Ģä¹Ī
ä»Ĭå¤©è¿ĩ å¾ĹæĢİä¹Īæł·
å¤ ª
ä» ¶
åĨ Ļ
æķ °
å¿ Ļ
æīĭ å·¥
åī į
è§ī å¾Ĺ
æĺ¯ è°ģ
¡ æľī
æ ±
ï¼ Ľ
ä¸ ľ
äº Ĵ
åĲ ¬
åħ ³
åĮ ħ
æ² ¡æľī
ħ å®
åĨ ħå®
å¿ ħ
æŃ ¤
éĽ Ĩ
éĩį è¦ģ
åĨħå® ¹
å¸ ¸
ç ¦
è¿ Ĳ
´ åĽ¢
¾ èİī
æ ĺŁ
ç ¾
Į åĮħ
ĵ æ
ä¸ Ŀ
è¯ Ń
ä» ½
ä½ Ĩ
ä½ł å¥½
ä½ł çŁ¥éģĵ
ä¸Ģ èµ·
èĥ ĮåĮħ
åĺŁåĺŁåı¯ çļĦ
æķħäºĭ éĩĮ
æĮ ī
è§Ĵ è§Ĵ
çĲ ´åĽ¢
èī ¾èİī
ç§ °
éĻª ä¼´
å¦ Ī
åıĳ çĶŁ
æĮĤ åľ¨
æ± Ĥ
ä¸ľ è¥¿
æ²¡æľī æ
èĥĮåĮħ ä¸Ĭ
è§Ĵè§Ĵ é±¼
çĲ´åĽ¢ éķ¿
èī¾èİī ä¸Ŀ
æ °
çĽ¸ åĬł
çĽ¸åĬł æĺ¯å¤ļå°ĳ
æľº åĻ¨
æľºåĻ¨ åŃ¦ä¹ł
é ļ
åĺŁåĺŁåı¯ ä¼ļ
åĺŁåĺŁåı¯ åĴĮåı¯èİī
æĮ ģ
ä ¾
ä¸Ģ çĤ¹
çĽ ´
ç» ĵ
éĹ ´
æľī å¤ļå°ĳ
8 0
Ħ æ
æĺ¯ ä¸º
åĲ İ
åĺŁåĺŁåı¯ ä¸Ģ
åĩı åİ»
æį ¢
ä¸º ä»Ģä¹Ī
è§£ éĩ
å¯ Ĩ
åº Ķ
åĮ º
éļ ı
è§£éĩ Ĭ
ç®Ĺ ä¸Ģä¸ĭ
ä¿¡ æģ¯
Ġå¸®æĪĳ ç®Ĺä¸Ģä¸ĭ
« ç±³
Ġè¯· æĬĬ
ç®Ĺ æĪĲ
åį ĥ
ç§ Ĵ
æ¯ «ç±³
æį¢ ç®ĹæĪĲ
00 0
ç º
è Ĭ
Ĩ æĪĲ
åĪ ©
æĢ Ŀ
æĹ¶ éĹ´
æĦı æĢĿ
åĵ ģ
æĭ ĨæĪĲ
æĭĨæĪĲ å°ı
® ä¸Ń
æ Ľ
Ġ åĨįè§ģ
Ġ æĻļå®ī
Ġ ä¸ĭæ¬¡è§ģ
æĸ °
ç» Ļ
èµ °
ç¡ ®
è¡Į åĬ¨
æį ®ä¸Ń
æŃ¥ éª
æķ° æį®ä¸Ń
åĮº åĪĨ
æĽ ´
æŃ¥éª ¤
4 0
2 0
ĭ ç»
ä» ĭç»
ä»ĭç» į
ª éĩĮ
¯ æĮģ
å ±
ĳ Ħ
ĳ æģ¯
ķ Į
åı Ĭ
åı Ĺ
çļĦ äºº
çļĦ æĦŁ
èĥ½ åĬĽ
åĽ ł
ä¼ ĳæģ¯
çĿ ¡
åĵ ªéĩĮ
æĶ ¯æĮģ
äºĴ çĽ¸
æ° Ķ
æĭĨæĪĲå°ı æŃ¥éª¤
çļĦæĦŁ åıĹ
¢ «
¼ æŃ¤
è ¢«
äº ¤
è® °
ä¼ ¤
äºĭ æĥħ
å½ ¼æŃ¤
é¡ ¾
å½ĵ åīį
å¿ħ è¦ģ
Ľ è¡Į
è¿ Ľè¡Į
ä¸Ģä¸ª å°ı
¢ åĳ¼
¢ æ°Ķ
£ «
¤ å
¦ äºĨ
§ éĹ®é¢ĺ
§ æĥħ
§ é¡¾
¨ Ģ
¨ è®
¬ æĢ
² Ī
² Ľ
´ èĥ½
· åı
º ä¸Ģ
º åĪ©
» æĿ
å ĥ
å £«
ç ģ
ç ħ
è Ī
è Ĵ
è ¨Ģ
Ġ è¾
Ġ å¾Īé«ĺåħ
Ġ åĲ¬
Ħ çĲĨ
ħ ¢åĳ¼
ĩ é¡
į åŃ
ı å¤
Ķ ç½ĳ
ķ çĿĢ
ĸ å®ŀ
ĺ å¯Ĩ
Ľ èĭ
ä¸ İ
ä¸ ĸç
è¯ ķçĿĢ
å® ¢æ°Ķ
å¤ ĦçĲĨ
ä½ł è®
ä½ł çİ°åľ¨
æĺ¯ åı¯èİī
åĪ ĩé¡
åĲ ¸
åĲ ĥ
åĲ įåŃ
ĠæĪĳ ä¸įèĥ½
ĠæĪĳ æĹłæ³ķ
ĠæĪĳ æ²¡æľīæ
ä¸Ģ åĪĩé¡
åĴĮ ä½łè®
èİ ·åı
å¥½ èĩªå·±
å¥½ è§ī
å¥½ çļĦæľĭåıĭ
æĹ ı
äºĭ å®ŀ
ä¸į å¤ª
çŁ¥ èĥ½åĬĽ
æľī ä»Ģä¹Ī
æľī éĹ®é¢ĺ
åı¯ä»¥ åħĪ
åı¯ä»¥ è¯´è¯´
åı¯ä»¥ åĲĳ
åı¯ä»¥ åĴĮä½łè®
å¸® åĪ°
éĩ ĳ
èģ Ķç½ĳ
æĹ¶ åĨį
æĹ¶ ä¿¡æģ¯
æĹ¶ åı¯ä»¥åĲĳ
åģ ¶
çŁ¥éģĵ å½ĵåīį
å¾Ī éĩįè¦ģ
åĩ º
å¼ ¹
ä¸ª å¥½è§ī
åģļ åĩł
Ġä½ł çļĦæĦŁåıĹ
å½ ±
æĬĬ äºĭæĥħ
çĶ¨ è°¢
åĨį æĬĬäºĭæĥħ
æī ¾
åħĪ çħ
ç§ ĺå¯Ĩ
å®ŀ ä¸ĸç
çľŁ å®ŀä¸ĸç
åĪ¶ ä½ľ
æĿ¥ ä½łçİ°åľ¨
ä¹Ł æĹłæ³ķ
ä¹Ł åı¯ä»¥è¯´è¯´
è¿Ļ æĺ¯
è¿Ļ ä»½
æľĢ å¥½çļĦæľĭåıĭ
âĢĿ ãĢĤ
æ¬¡ ç¼
èµ· æĿ¥ä½łçİ°åľ¨
ä»» çļĦäºº
åŁºç¡Ģ è§Ĵèī²
´åĴĮ çľŁå®ŀä¸ĸç
åī §æĥħ
æĦŁ çŁ¥èĥ½åĬĽ
çİ© åģ¶
ä¿¡ ä»»çļĦäºº
Ġä¸į å®¢æ°Ķ
Ġä¸į çĶ¨è°¢
è½ »æĿ
ç¥Ŀä½ł çĿ¡
ç¥Ŀä½ł ä¸ĢåĪĩé¡
çļĦé ²Ī
çĪ ±
Ġå¥¹ è¯´
çĤ¸ å¼¹
å¯» æ±Ĥ
çī¹åĪ« è¹¦è¹¦
ç¾ ¤å
ĵæ ħ¢åĳ¼
è¯Ń è¨Ģ
ä½Ĩ åı¯ä»¥åĴĮä½łè®
åĺŁåĺŁåı¯çļĦ ç§ĺå¯Ĩ
åıĳçĶŁ äºĨä»Ģä¹Ī
éļı æĹ¶åĨį
ĳĦ åĥ
ķĮ æĦŁçŁ¥èĥ½åĬĽ
ä¼ĳæģ¯ ä¸Ģä¸ĭ
å¿ħè¦ģ æĹ¶åı¯ä»¥åĲĳ
§é¡¾ å¥½èĩªå·±
¨è® ºä¸Ģ
¬æĢ §éĹ®é¢ĺ
´èĥ½ å¸®åĪ°
èĪ ¬æĢ§éĹ®é¢ĺ
Ġè¾ Ľèĭ
Ġå¾Īé«ĺåħ ´èĥ½å¸®åĪ°
ĠåĲ¬ èµ·æĿ¥ä½łçİ°åľ¨
ıå¤ ´åĴĮçľŁå®ŀä¸ĸç
ĸå®ŀ æĹ¶ä¿¡æģ¯
è¯ķçĿĢ åģļåĩł
åĲįåŃ Ĺ
ĠæĪĳä¸įèĥ½ èģĶç½ĳ
ĠæĪĳæĹłæ³ķ çŁ¥éģĵå½ĵåīį
ĠæĪĳæ²¡æľīæ ĳĦåĥ
èİ·åı ĸå®ŀæĹ¶ä¿¡æģ¯
ä¸įå¤ª è½»æĿ
æľīéĹ®é¢ĺ éļıæĹ¶åĨį
åı¯ä»¥åħĪ ä¼ĳæģ¯ä¸Ģä¸ĭ
Ġä½łçļĦæĦŁåıĹ å¾Īéĩįè¦ģ
åĨįæĬĬäºĭæĥħ æĭĨæĪĲå°ıæŃ¥éª¤
åħĪçħ §é¡¾å¥½èĩªå·±
ä¹ŁæĹłæ³ķ èİ·åıĸå®ŀæĹ¶ä¿¡æģ¯
ä¹Łåı¯ä»¥è¯´è¯´ åıĳçĶŁäºĨä»Ģä¹Ī
æ¬¡ç¼ ĵæħ¢åĳ¼
ä¿¡ä»»çļĦäºº å¯»æ±Ĥ
ç¥Ŀä½łçĿ¡ ä¸ªå¥½è§ī
ç¥Ŀä½łä¸ĢåĪĩé¡ ºåĪ©
çļĦé²Ī é±¼
ç¾¤å ²Ľ
ä½Ĩåı¯ä»¥åĴĮä½łè® ¨è®ºä¸Ģ
å¿ħè¦ģæĹ¶åı¯ä»¥åĲĳ ä¿¡ä»»çļĦäººå¯»æ±Ĥ
Ġè¾Ľèĭ ¦äºĨ
Ġå¾Īé«ĺåħ´èĥ½å¸®åĪ° ä½ł
ĠåĲ¬èµ·æĿ¥ä½łçİ°åľ¨ ä¸įå¤ªè½»æĿ
ıå¤´åĴĮçľŁå®ŀä¸ĸç ķĮæĦŁçŁ¥èĥ½åĬĽ
è¯ķçĿĢåģļåĩł æ¬¡ç¼ĵæħ¢åĳ¼
ĠæĪĳæĹłæ³ķçŁ¥éģĵå½ĵåīį æĹ¶éĹ´
ĠæĪĳæ²¡æľīæĳĦåĥ ıå¤´åĴĮçľŁå®ŀä¸ĸçķĮæĦŁçŁ¥èĥ½åĬĽ
æľīéĹ®é¢ĺéļıæĹ¶åĨį éĹ®
ä½Ĩåı¯ä»¥åĴĮä½łè®¨è®ºä¸Ģ èĪ¬æĢ§éĹ®é¢ĺ
å¿ħè¦ģæĹ¶åı¯ä»¥åĲĳä¿¡ä»»çļĦäººå¯»æ±Ĥ æĶ¯æĮģ
ĠåĲ¬èµ·æĿ¥ä½łçİ°åľ¨ä¸įå¤ªè½»æĿ ¾
è¯ķçĿĢåģļåĩłæ¬¡ç¼ĵæħ¢åĳ¼ åĲ¸
6 0
4 1
® æİ§åĪ¶
° è¯Ńè¨Ģ
º ¿
ĠæĪĳ åı¯ä»¥
ä¸Ģ äºĽ
åĴĮ éĹ®
å¾ ®æİ§åĪ¶
åľ °è¯Ńè¨Ģ
åľ¨ å¾®æİ§åĪ¶
åĽŀçŃĶ ç®Ģåįķ
åı¯ä»¥ è¿Ľè¡Į
ä¸Ĭ çļĦå°ı
èģĬå¤© åĬ©
èģĬå¤© åĴĮéĹ®
çĽ¸ ä¹ĺ
ç®Ģåįķ èģĬå¤©åĴĮéĹ®
åŀĭ æľ¬
åŀĭ ç¦
å¹¶ å¤ĦçĲĨ
è¡Į åľ¨å¾®æİ§åĪ¶
»ç º¿
éĻª ä½łèģĬå¤©
åŁºç¡Ģ è®¡ç®Ĺ
åĻ¨ ä¸ĬçļĦå°ı
ĠæĪĳæĺ¯ è¿Ĳ
ĠæĪĳæĺ¯ ä¸Ģä¸ªå°ı
ĠæĪĳåı¯ä»¥ éĻªä½łèģĬå¤©
ä¸ĢäºĽ åŁºç¡Ģè®¡ç®Ĺ
åľ°è¯Ńè¨Ģ æ¨¡åŀĭ
åĽŀçŃĶç®Ģåįķ éĹ®é¢ĺ
åı¯ä»¥è¿Ľè¡Į ç®ĢåįķèģĬå¤©åĴĮéĹ®
èģĬå¤©åĬ© æīĭ
çĽ¸ä¹ĺ æĺ¯å¤ļå°ĳ
åŀĭæľ¬ åľ°è¯Ńè¨Ģæ¨¡åŀĭ
åŀĭç¦ »çº¿
å¹¶å¤ĦçĲĨ ä¸ĢäºĽåŁºç¡Ģè®¡ç®Ĺ
è¡Įåľ¨å¾®æİ§åĪ¶ åĻ¨ä¸ĬçļĦå°ı
ĠæĪĳæĺ¯è¿Ĳ è¡Įåľ¨å¾®æİ§åĪ¶åĻ¨ä¸ĬçļĦå°ı
ĠæĪĳæĺ¯ä¸Ģä¸ªå°ı åŀĭæľ¬åľ°è¯Ńè¨Ģæ¨¡åŀĭ
åı¯ä»¥è¿Ľè¡Įç®ĢåįķèģĬå¤©åĴĮéĹ® çŃĶ
åŀĭç¦»çº¿ èģĬå¤©åĬ©æīĭ
ĠæĪĳæĺ¯è¿Ĳè¡Įåľ¨å¾®æİ§åĪ¶åĻ¨ä¸ĬçļĦå°ı åŀĭç¦»çº¿èģĬå¤©åĬ©æīĭ
¤ çľŁ
2 6
æİ ¥
è® ¤çľŁ
3 5
æł ĩ
4 7
3 0
¿ è¯´è¯´
ç ĸ
ç Ļ
Ġ æĸ¹
ĳ æĥ
Ĺ çļĦè¯Ŀè¯´
Ġè¯· åĳĬè¯īæĪĳ
Ġè¯· ç®Ģåįķ
Ġè¯· çĽ´
Ġè¯· è®¤çľŁ
æĥ³ æĥ³
äºĨ è§£
ä¸ª éĹ®é¢ĺ
Ġä½ł æĢİä¹Ī
ĠæĪĳæĥ³ éĹ®
ĠæĪĳæĥ³ å¼Ħ
ĠæĪĳæĥ³ äºĨè§£
ç®Ģåįķ çļĦè¯Ŀè¯´
Ġèĥ½ åĳĬè¯īæĪĳ
ä¿ ĹçļĦè¯Ŀè¯´
æĺİ çĻ
éĢļ ä¿ĹçļĦè¯Ŀè¯´
Ġå¸®æĪĳ æĥ³æĥ³
äºĽ çĸ
ĠæĪĳæľī ä¸ªéĹ®é¢ĺ
ĠæĪĳæľī äºĽçĸ
Ġåı¯ä»¥ åĽŀçŃĶ
Ġåı¯ä»¥ è§£éĩĬ
Ġè¯·çĶ¨ ç®ĢåįķçļĦè¯Ŀè¯´
Ġè¯·çĶ¨ éĢļä¿ĹçļĦè¯Ŀè¯´
Ġè¯·å¸®æĪĳ åĽŀçŃĶ
Ġè¯·å¸®æĪĳ çĲĨè§£
ĠæĪĳéľĢè¦ģ çŁ¥éģĵ
ĠæĪĳéľĢè¦ģ ä¸ĢçĤ¹
Ġéº»çĥ¦ åĽŀçŃĶ
Ġéº»çĥ¦ è¯´æĺİ
ä¾ ¿è¯´è¯´
æİ¥ åĽŀçŃĶ
Ġæĸ¹ ä¾¿è¯´è¯´
ĳæĥ ĳ
Ġè¯·ç®Ģåįķ è¯´æĺİ
Ġè¯·çĽ´ æİ¥åĽŀçŃĶ
Ġè¯·è®¤çľŁ åĽŀçŃĶ
Ġä½łæĢİä¹Ī çľĭ
ĠæĪĳæĥ³å¼Ħ æĺİçĻ
ĠæĪĳæľīäºĽçĸ ĳæĥĳ
Ġåı¯ä»¥è§£éĩĬ ä¸Ģä¸ĭ
ĠæĪĳéľĢè¦ģä¸ĢçĤ¹ å»ºè®®
ĠæĪĳæĥ³å¼ĦæĺİçĻ ½
çī ©
3 6
3 7
åĬ ŀ
å¯ ¹
æĢİä¹Ī åĬŀ
éĢļ å¸¸
å¾ ħ
ä¹ĺ ä»¥
åĺŁåĺŁåı¯ä¸Ģ æĹı
1 7
2 9
6 9
1 0
1 5
2 5
Ġ äººå·¥æĻºèĥ½
¨ åĪĨ
¾ è¿ĩ
Ġ æĬĬ
ĥ ¨åĪĨ
è¯ ¥
å¾ ĭ
è¾ ¾
æĸ¹ æ³ķ
è§Ħ å¾ĭ
3 9
4 4
³ å®ļ
çŃī å¾ħ
Ġ1 0
Ġè¯·éĹ® åĺŁåĺŁåı¯
3 8
2 8
çī© åĵģ
¦ è
¨ ĭ
´ ¯
µ ĭ
» åĲĹ
æ ļ
ç Ħ
ç ´¯
é £
é Ŀ
Ġ æľºåĻ¨åŃ¦ä¹ł
Ģ æľ
Ĥ æĹ¶
Į æľ
Į ä¸į
ı ä¸ª
Ķ åĪĨéĴŁ
Ķ çŃīå¾ħ
Ļ ĳ
Ļ æīĭå·¥
ļ ¾è¿ĩ
äº ĶåĪĨéĴŁ
çļĦ æĬ
çļĦ ä¸ĢæŃ¥
çļĦ æĸ°
çļĦ æĸ¹æ³ķ
æĪĳ åĲĹ
æĪĳ ä¸Ģä¸ª
åĪ Ļæīĭå·¥
ä¸Ģ ä»¶
èĥ½ æİ§åĪ¶
èĥ½ å®ĮæĪĲ
åĴĮ æļ
éĹ »åĲĹ
åĨ ³å®ļ
å¸ Įæľ
ä¸į å¥½
ä¸į çŁ¥éģĵ
æľī å¸®åĬ©
å¸® å¤§
ä¸ĭ æĿ¥
ä¸ĭ ä¸ĢæŃ¥
çŃī ä»»åĬ¡
æĪĲ çŃīä»»åĬ¡
å¾Ī ç´¯
å°ı çļĦä¸ĢæŃ¥
åģļ ä¸Ģä»¶
é¢ Ħæ
è®¡ç®Ĺ æľº
åĨį åĨ³å®ļ
è§ģ æĪĳåĲĹ
éĹ®é¢ĺ åĨĻ
ä¸Ĭ ç½ĳ
åħĪ èµ°
å®ļ æľĢ
çľŁ å¥½
æ¯ ıä¸ª
æ¯ ĶçŃīå¾ħ
å¾Īé ļ¾è¿ĩ
æĥħ ä¸įå¥½
çĤ¹ åĲĹ
çĤ¹ çĦ
ä»Ĭå¤© çļĦæĸ°
ä»Ĭå¤© å¾Īéļ¾è¿ĩ
å¿ĥ æĥħä¸įå¥½
èĢ Įä¸į
æİ§åĪ¶ çļĦé
ç¼ ĸç
è¯Ĩ åĪ«
ä¸įèĥ½ æİ§åĪ¶çļĦé
ä»İ æķ°æį®ä¸Ń
ä»İ äºĶåĪĨéĴŁ
å®ĮæĪĲ åĲİ
å®ĮæĪĲ è¯ĨåĪ«
çĶŁ æĪĲçŃīä»»åĬ¡
åŃ¦ä¹ł è§Ħå¾ĭ
çļĦå°ı ä»»åĬ¡
çľĭ è§ģæĪĳåĲĹ
æĢİæł· å¼Ģå§ĭ
åĩł çĤ¹åĲĹ
è¡¨ è¾¾
çİ°åľ¨ åĩłçĤ¹åĲĹ
æ¨¡åŀĭ ä»İæķ°æį®ä¸Ń
ĠåħĪ ç¡®
ĠåħĪ ä»İäºĶåĪĨéĴŁ
è§Ħ åĪĻæīĭå·¥
æĪĸ çĶŁæĪĲçŃīä»»åĬ¡
è°¢è°¢ ä½ł
æĺ¯è®© è®¡ç®Ĺæľº
æĺ¯è®© æ¨¡åŀĭä»İæķ°æį®ä¸Ń
å¿Ļ äºĨ
è§īå¾Ĺ å¾Īç´¯
æĺ¯ä¸º æ¯ıä¸ª
ç»Ļ æĪĳä¸Ģä¸ª
è¡ĮåĬ¨ éĢļå¸¸
åĮºåĪĨ èĥ½æİ§åĪ¶
æĽ´ æľīå¸®åĬ©
Ġäººå·¥æĻºèĥ½ æĺ¯è®©è®¡ç®Ĺæľº
ĠæĬĬ éĹ®é¢ĺåĨĻ
è¯¥ æĢİä¹ĪåĬŀ
¦è Ļĳ
µĭ æĪĸçĶŁæĪĲçŃīä»»åĬ¡
ĠæľºåĻ¨åŃ¦ä¹ł æĺ¯è®©æ¨¡åŀĭä»İæķ°æį®ä¸Ń
Ģæľ ¯
ĤæĹ¶ ä¸įèĥ½æİ§åĪ¶çļĦé
çļĦæĬ Ģæľ¯
èĥ½å®ĮæĪĲ çļĦå°ıä»»åĬ¡
åĴĮæļ ĤæĹ¶ä¸įèĥ½æİ§åĪ¶çļĦé
å¸Įæľ Ľ
ä¸įçŁ¥éģĵ è¯¥æĢİä¹ĪåĬŀ
å¸®å¤§ å¿ĻäºĨ
åģļä¸Ģä»¶ äºĭ
é¢Ħæ µĭæĪĸçĶŁæĪĲçŃīä»»åĬ¡
åĨįåĨ³å®ļ ä¸ĭä¸ĢæŃ¥
ä¸Ĭç½ĳ åĲĹ
åħĪèµ° äºĨ
å®ļæľĢ å°ıçļĦä¸ĢæŃ¥
æ¯ĶçŃīå¾ħ æĽ´æľīå¸®åĬ©
çĤ¹çĦ ¦èĻĳ
ä»Ĭå¤©çļĦæĸ° éĹ»åĲĹ
èĢĮä¸į æĺ¯ä¸ºæ¯ıä¸ª
ç¼ĸç ¨ĭ
å®ĮæĪĲåĲİ åĨįåĨ³å®ļä¸ĭä¸ĢæŃ¥
åŃ¦ä¹łè§Ħå¾ĭ çļĦæĸ¹æ³ķ
æĢİæł·å¼Ģå§ĭ åģļä¸Ģä»¶äºĭ
ĠåħĪç¡® å®ļæľĢå°ıçļĦä¸ĢæŃ¥
ĠåħĪä»İäºĶåĪĨéĴŁ èĥ½å®ĮæĪĲçļĦå°ıä»»åĬ¡
è§ĦåĪĻæīĭå·¥ ç¼ĸç¨ĭ
ç»ĻæĪĳä¸Ģä¸ª å»ºè®®
è¡ĮåĬ¨éĢļå¸¸ æ¯ĶçŃīå¾ħæĽ´æľīå¸®åĬ©
åĮºåĪĨèĥ½æİ§åĪ¶ åĴĮæļĤæĹ¶ä¸įèĥ½æİ§åĪ¶çļĦé
Ġäººå·¥æĻºèĥ½æĺ¯è®©è®¡ç®Ĺæľº å®ĮæĪĲè¯ĨåĪ«
ĠæĬĬéĹ®é¢ĺåĨĻ ä¸ĭæĿ¥
ĠæľºåĻ¨åŃ¦ä¹łæĺ¯è®©æ¨¡åŀĭä»İæķ°æį®ä¸Ń åŃ¦ä¹łè§Ħå¾ĭçļĦæĸ¹æ³ķ
é¢ĦæµĭæĪĸçĶŁæĪĲçŃīä»»åĬ¡ çļĦæĬĢæľ¯
èĢĮä¸įæĺ¯ä¸ºæ¯ıä¸ª è§ĦåĪĻæīĭå·¥ç¼ĸç¨ĭ
ĠåħĪä»İäºĶåĪĨéĴŁèĥ½å®ĮæĪĲçļĦå°ıä»»åĬ¡ å¼Ģå§ĭ
åĮºåĪĨèĥ½æİ§åĪ¶åĴĮæļĤæĹ¶ä¸įèĥ½æİ§åĪ¶çļĦé ĥ¨åĪĨ
åħ ¨
å®ī åħ¨
1 9
7 7
© ä¸Ĭå¥½
å Ĺ
ä½ł èĩªå·±
æĹ ©ä¸Ĭå¥½
ä¸Ģä¸ĭ ä½łèĩªå·±
æĻļ ä¸Ĭå¥½
ä»ĭç»į ä¸Ģä¸ĭä½łèĩªå·±
åĹ ¨
æ ı
åĲ Į
ä½ľ çĶ¨
æĶ ¶
3 4
æ ·
3 2
5 0
4 8
1 6
¡ å¾
¢ °
¢ İ
£ è¡¨
¨ »
¨ ç
® éĢļ
± ¡å¾
¸ ¸
¹ æŀľ
½ çļ
¿ ä»¬
å Ħ
æ ¢°
æ ¸¸
ç ı
ç ¢İ
è Į
è ±¡å¾
Ġ ãĢĬ
Ġ æĮī
Ġ åĽł
ģ çĿĢ
ĥ éĽĨ
Ħ èī
Ĩ Ĭ
ī å¼Ħ
ĳ å£«
ķ å½±
ĺ æĸ¹
Ļ å¾
ŀ ä¹ĭ
Ń ç»
åı ª
åı Ī
ä» £è¡¨
çļĦ å¤
çļĦ åĽĽåı¶èįī
çļĦ ä¸ľè¥¿
æĪĳ æľī
æĪĳ ä»Ĭå¤©å¾Īéļ¾è¿ĩ
æĪĳ å¿ĥæĥħä¸įå¥½
æĪĳ è§īå¾Ĺå¾Īç´¯
æĪĳ ä¸įçŁ¥éģĵè¯¥æĢİä¹ĪåĬŀ
æĪĳ åħĪèµ°äºĨ
å® ĺæĸ¹
ä½ł æĺ¯ä»Ģä¹Ī
ä½ł æĺ¯è°ģ
ä½ł çľŁå¥½
è§ Ĩ
è® Ńç»
åĽ ¾
åĴĮ ä¼Ļä¼´
å¥½ æľĭåıĭ
å¥½ åĲĥ
åľ¨ åĲĹ
ä»¥ åıĬ
è¿ ĺ
å®ĥ ä¼ļ
æĢ ķ
å¸® å¿Ļ
å· ¨ç
æķħäºĭ è®¾å®ļ
æĬ ķå½±
ä¸ª åĲįåŃĹ
åģļ æīĭå·¥
å½ ķ
ä¼ļ åģļæīĭå·¥
æĬĬ å®ĥ
æĸ Ļ
æĻ ®éĢļ
åĸ Ħèī
èĩª æĪĳ
å¤§ èĥĮåĮħä¸Ĭ
çī ĩ
é±¼ åĦ
è¿Ļ ä¸ªåĲįåŃĹ
åĸľæ¬¢ åģļä»Ģä¹Ī
æ¯ Ľ
é¡ ½çļ
ç¥ ŀä¹ĭ
âĢĿ ï¼Į
éĻª åı¯èİī
æį īå¼Ħ
æľº æ¢°
äºĮåĪĽ åī§æĥħ
æľ¬ çŁ¥è¯ĨåºĵçļĦ
æľ¬ è®Ńç»
å¿ĥ ç¢İ
èĢ ³
èĢ į
å¦ »
åĨĴéĻ© çļĦ
çİ© èĢį
ä½łèĥ½ åģļä»Ģä¹Ī
ä½łèĥ½ çľĭè§ģæĪĳåĲĹ
ä½łèĥ½ ä¸Ĭç½ĳåĲĹ
éª ĳå£«
Ġåľ¨ æľ¬çŁ¥è¯ĨåºĵçļĦ
è½ °
èĭ ¹æŀľ
æĮĤ ä»¶
è§Ĵèī² è®¾å®ļ
ä½ı åľ¨
ä¹ĭ ä¸Ģ
åı¯èİīçļĦ å¤§èĥĮåĮħä¸Ĭ
å¯» æī¾
è¹¦è¹¦ çĤ¸å¼¹
åħ³ ç
åħ³ çĪ±
æĺŁ åĽ¾
ä½łå¥½ åĳĢ
ä½łçŁ¥éģĵ çİ°åľ¨åĩłçĤ¹åĲĹ
ä½łçŁ¥éģĵ ä»Ĭå¤©çļĦæĸ°éĹ»åĲĹ
ä¸Ģèµ· çİ©èĢį
ç§° åĳ¼
å¦Ī å¦Ī
æĮĤåľ¨ åı¯èİīçļĦå¤§èĥĮåĮħä¸Ĭ
èī¾èİīä¸Ŀ åĪ¶ä½ľ
ç»ĵ äº¤
åºĶ å½ĵ
èĬ ±
æĦıæĢĿ æĺ¯
äºĴçĽ¸ æįīå¼Ħ
è®° ä½ı
ä¼¤ å¿ĥ
çģ «
èĴ Ļå¾
éĩĳ èĭ¹æŀľ
è¿Ļä»½ çŁ¥è¯ĨåºĵçļĦ
æłĩ ä¸º
¨» å¦»
çı į
èĮ ¸
è±¡å¾ ģçĿĢ
ĠåĽł ä¸º
æĪĳæľī çĤ¹çĦ¦èĻĳ
åĴĮä¼Ļä¼´ ä»¬
å·¨ç ĨĬ
æĬķå½± æĺŁåĽ¾
åĸĦèī ¯
é±¼åĦ ¿ä»¬
é¡½çļ ®
ç¥ŀä¹ĭ å¿ĥç¢İ
æľºæ¢° å·¨çĨĬ
æľ¬è®Ńç» ĥéĽĨ
å¯»æī¾ åĽĽåı¶èįī
èĴĻå¾ ·
éĩĳèĭ¹æŀľ ç¾¤å²Ľ
ç¥ŀä¹ĭå¿ĥç¢İ çīĩ
1 2
4 6
å°ı æĹ¶
9 8
2 7
5 7
1 8
åĲ Ī
4 2
9 0
åĺŁåĺŁåı¯ æĺ¯
çĽ ®
åįĥ ç±³
åįĥ åħĭ
è ´
5 5
6 7
9 7
é ĺ
éĢ Ĥ
5 8
Ġè¯·éĹ® åı¯èİī
ä»Ģä¹Īæĺ¯ äººå·¥æĻºèĥ½
ä»Ģä¹Īæĺ¯ æľºåĻ¨åŃ¦ä¹ł
4 9
1 1
ä½ ĵ
åħ ī
æŃ £
5 2
1 4
ä¸ ĵ
äººå·¥æĻºèĥ½ æĺ¯ä»Ģä¹Ī
2 2
1 3
9 6
åį ĩ
æĺ¯ä»Ģä¹Ī æĦıæĢĿ
ä¸ºä»Ģä¹Ī è¦ģ
çº ¦
èĬ Ĥ
º Ĳ
7 0
å¼ ı
8 8
ĠåĺŁåĺŁåı¯ æĺ¯
Ġåı¯èİī è¯´
± åĲĮ
º «
¿ æĦı
å Ģ
æ µ
æ Ĵ
è º«
į ç½
ä½ įç½
åħ ±åĲĮ
ä¸į è¦ģ
éģ ĩ
ç± »
æĦ ¿æĦı
æī Ģ
æľĢ åĲİ
è¾ ¹
æĭ ¾
ç¦ »
é£ Ł
æı Ĳ
æĶ¶ æĭ¾
åĲĪ éĢĤ
ä½įç½ ®
8 7
çļĦ åĨħå®¹
å® ³
æĺ¯ æĬĬ
åħ ¬
åħ ¶
æī ¿
å¹ ³
éĢļ è¿ĩ
å¦ Ĥ
é£ İ
4 5
9 9
Ġ1 6
Ġ1 5
Ġ1 7
3 3
¢ çļĦåĽĽåı¶èįī
¤ Ĳ
¤ æĸ
¤ åįķ
¤ èĢ
¤ èµ°
¤ åħ¶
¥ åĪ°
¥ ä½ľçĶ¨
¦ æľī
¦ åıĳ
¦ èĢ³
§ çİ©åģ¶
¨ ģ
¨ æĦŁ
© åĨĻ
« æ¨¡
« åĽ¢
¬ å½±
® çļĦ
® æľīä»Ģä¹Ī
¯ åĴĮ
¯ çľŁ
¯ ç¥
± åĴĮ
± æŃ
± å¥¹
± éĻ©
² åį
² åħ¬
³ »
´ åıĳ
µ åĪ
µ æķ
¶ Ĥ
¶ ī
¶ åĩº
· ä¸Ń
· æ³
· æĺ¯ä»Ģä¹Ī
· éĽ
· æ·
· æĬĬå®ĥ
¸ å¼
¸ æĪĸ
¸ è¿Ĳ
º åĲĹ
º ä¼ļåģļæīĭå·¥
» åĮºåĪĨ
¼ çļĦ
½ çĿĢ
½ äºĴçĽ¸
½ çļĦå¤
¾ ä¹ĭ
å Ķ
å ¨ģ
æ Ĥ
æ ºĲ
æ ¶ī
ç ¨»å¦»
é ĥ
é Ĩ
é «ĺ
é ¤Ĳ
Ġ æĺ¯
Ġ æķħäºĭ
Ġ èµ·
Ġ ä¸įèĥ½
Ġ ä»İ
Ġ æķħäºĭä¸Ń
Ġ æķħäºĭéĩĮ
Ġ éĻªä¼´
Ġ è¿Ļæĺ¯
Ġ æľ¬è®Ńç»ĥéĽĨ
Ģ åľ¨
Ģ æĺ¯ä»Ģä¹Ī
ģ ç»Ļ
ģ éĺ
Ĥ Ħ
Ħ æĸĻ
ħ æĪ
ħ ä»¥
Ĩ çĤ¸
Ĩ ç¡®
ĩ éģĩ
Ī æŀ
Ī ä½ı
ī ç±³
ĭ çľŁ
ĭ å¦Ĥ
Į è¢«
į æĥħ
İ é£Ł
İ é¤Ĳ
ı Ĳ
ı çļĦ
ı è¿
Ĳ æĸĻ
ĳ èİ
Ĵ å¤§å®¶
Ĵ è´
ĵ äºº
ĵ åĪ°
ĸ è¡¨
ĸ èĬ±
Ĺ äºº
Ĺ åĬĽ
ĺ æĪĲ
ĺ æĸ
ļ å£«
ľ è¡Į
ľ æľĭåıĭ
Ŀ çļĦæľĭåıĭ
ŀ æľ¬
ŀ çİ©åģ¶
Ł æŃ¤
Ł æ¸¸
ł çļĦ
ł è¡¨è¾¾
Ń çļĦ
Ń è§Ĵè§Ĵé±¼
Ń å½ķ
ä¸ ¤èĢ
ä¸ īç±³
åı ·æĺ¯ä»Ģä¹Ī
åı ĺæĪĲ
è¯ ·æĬĬå®ĥ
è¯ Ĺäºº
åı¯ çĪ±
åı¯ éĿ
åı¯ æĢķ
äº «åĽ¢
çļĦ å¾Ī
çļĦ å¹
çļĦ å®¶
çļĦ çī¹
çļĦ çĪ
çļĦ åıĭè°Ĭ
çļĦ åĬ¨
çļĦ æķħäºĭéĩĮ
çļĦ åĺŁåĺŁåı¯ä¼ļ
çļĦ ç»ĵ
çļĦ åŁºç¡Ģè§Ĵèī²
çļĦ çİ©åģ¶
çļĦ çĤ¸å¼¹
çļĦ çī¹åĪ«è¹¦è¹¦
çļĦ åĲįåŃĹ
çļĦ çī©åĵģ
çļĦ å¥½æľĭåıĭ
çļĦ èĩªæĪĳ
çļĦ æ¯Ľ
çļĦ äºĮåĪĽåī§æĥħ
çļĦ åħ³çĪ±
çļĦ å¦Īå¦Ī
çļĦ çıį
çļĦ æľºæ¢°å·¨çĨĬ
çļĦ çĽ®
çļĦ èº«
çļĦ ä½įç½®
æĪĳ ä¼ļ
å® Īä½ı
ä¹ ī
ä¹ ħä»¥
å¤ ®çļĦ
å¤ ĸè¡¨
æľ µåĪ
æĺ¯ å¥½
æĺ¯ å¥¹
æĺ¯ äºĮåĪĽæķħäºĭ
æĺ¯ åĺŁåĺŁåı¯åĴĮåı¯èİī
æĺ¯ æĻ®éĢļ
æĺ¯ æľ¬è®Ńç»ĥéĽĨ
åĪ ĿçļĦæľĭåıĭ
è§ ¦åıĳ
Ġè¯ Ńå½ķ
åĲ ĵäºº
åĲ Łæ¸¸
è¯´ åĸľæ¬¢
è¯´ è¿Ļæĺ¯
è¯´ æĤ
å¥ ĩéģĩ
å° ¤åħ¶
åĺŁåĺŁåı¯ æķħäºĭ
åĺŁåĺŁåı¯ ä¸º
åĺŁåĺŁåı¯ çĲĨè§£
åĺŁåĺŁåı¯ è½°
èĥ½ åĩ
èĥ½ ä¸İ
åĽ ŃçļĦ
åĴĮ æķħäºĭ
åĴĮ æľĭåıĭ
åĴĮ åıĭè°Ĭ
åĴĮ å¦Īå¦Ī
åĴĮ ç»ĵäº¤
åĴĮ åħ±åĲĮ
åĴĮ åĺŁåĺŁåı¯ä¸º
éĹ Ń
éĹ ¯ç¥
å¾ Ģ
ä»Ģä¹Ī æł·
ä»Ģä¹Ī ä¸ľè¥¿
æĥ ľæľĭåıĭ
ä¼ ¼çļĦ
åľ¨ æ¹ĸ
åľ¨ æķħäºĭä¸Ń
åľ¨ è¥¿
åľ¨ æŀľéħĴæ¹ĸ
åľ¨ åĲĪéĢĤ
åľ¨ ç¨»å¦»
ä»¥ éľĢè¦ģ
åı¯èİī ä¸į
åı¯èİī æľĢå¥½çļĦæľĭåıĭ
å¸ ¦æľī
è¿ ·éĽ
è¿ ľè¡Į
ä¸į ä¼ļ
ä¸į åºĶ
ä¸į åĲĮ
ä¸į æĺ¯æľ¬è®Ńç»ĥéĽĨ
æľī ä¸ĢçĤ¹
æľī ç¥ŀä¹ĭå¿ĥç¢İçīĩ
åĽŀçŃĶ æĹ¶
åĽŀçŃĶ çļĦåĨħå®¹
åı¯ä»¥ è¯´æĤ
å®ĥ æĿ¥
å®ĥ åĸľæ¬¢
å®ĥ æĺ¯åı¯èİī
å®ĥ åıª
å®ĥ éĻªåı¯èİī
å®ĥ è±¡å¾ģçĿĢ
å®ĥ çļĦåĲįåŃĹ
å®ĥ æĺ¯åĺŁåĺŁåı¯åĴĮåı¯èİī
å®ĥ ä¸įåºĶ
å· ¦èĢ³
å· §çİ©åģ¶
éĩ İé¤Ĳ
ä¸ĭ å®ĥä¼ļ
çĶ ±å¥¹
æķħäºĭ æı
æķħäºĭ çļĦç»ĵ
æĬ ¥åĪ°
æĬ ĵåĪ°
åį ±éĻ©
åį ļå£«
æĹ¶ æĮĤåľ¨åı¯èİīçļĦå¤§èĥĮåĮħä¸Ĭ
ä¸Ń è¯´
ä¸Ń ä¼ļ
ä¸Ń å¥¹
ä¸Ń çĲĨè§£
ä¸Ń çļĦå¤
ä¸Ń çļĦäºĮåĪĽåī§æĥħ
ä¸Ń å¸¦æľī
äºĨ åĺŁåĺŁåı¯
äºĨ æŀľéħĴæ¹ĸ
äºĨ èī¾èİīä¸Ŀ
äºĨ çī©åĵģ
çŃī åĨħå®¹
æĪĲ éĩĳ
æĪĲ å®ĺæĸ¹
¦ģ éĹŃ
éĻ ħæĪ
å¾Ī å¥½åĲĥ
å¾Ī ä¹ħä»¥
è¦ģ è®°ä½ı
å¼ ºåĲĹ
åģļ ä¸Ģä¸ª
åģļ äºĨä»Ģä¹Ī
åģļ åĩº
åģļ åį±éĻ©
æł ĳèİ
æĮ ¥ä½ľçĶ¨
æĮ ºä¼ļåģļæīĭå·¥
æĿ Ł
æĿ ĲæĸĻ
åĪĨ è¾
åĪĨ äº«åĽ¢
çİ ¯åĴĮ
çİ ĭçľŁ
ä¼ļ è¢«
ä¼ļ ä¼¤
ä¼ļ ç¦»
ä¼ļ è¯´è¿Ļæĺ¯
æĬĬ æī
æĬĬ åŁºç¡Ģè§Ĵèī²
æĬĬ äºĮåĪĽåī§æĥħ
ç» Īæŀ
ç» Ĵè´
çĶ¨ çģ
çĶ¨ æĻ®éĢļ
çĶ¨ æłĳèİ
ä¸º è§Ĵèī²
èµ ¶åĩº
èµ ĦæĸĻ
è§ģ åĪ°
èĩª è¿Ļä»½çŁ¥è¯ĨåºĵçļĦ
æł· çļĦä¸ľè¥¿
åİ »ç
çĽ¸ äºĴ
çĽ¸ ä¼¼çļĦ
ç§ įæĥħ
å®ŀ éª
å®ŀ éĻħæĪ
åŃ Ĳ
åŃ ¤åįķ
å¤§ çļĦçĤ¸å¼¹
å¤§ çİĭçľŁ
éĢ ģç»Ļ
çľŁ æŃ£
å¹¶ æ²¡æľīæ
å¹¶ éĿ
å¹¶ æĦ¿æĦı
å¹¶ æıĲ
å¹¶ æĶ¶æĭ¾
å¹¶ èĥ½ä¸İ
å¹¶ éĢģç»Ļ
æĿ¥ çĲĨè§£
æĿ¥ æ±Ĥ
æĿ¥ æī¾
æĿ¥ åĲĵäºº
æľĭåıĭ æĿ¥çĲĨè§£
ä»¬ éĥ
ä¹Ł åĸľæ¬¢
ä¹Ł è§īå¾Ĺ
ä¹Ł ä½ĵ
ä¹Ł æĺ¯å¥¹
å¥¹ åĸľæ¬¢
å¥¹ å¯¹
è¿Ļ ç±»
è¿Ļ ç§įæĥħ
åĸľæ¬¢ åĴĮåı¯èİī
åĸľæ¬¢ æŀľéħĴæ¹ĸ
åĸľæ¬¢ äºĴçĽ¸æįīå¼Ħ
åĸľæ¬¢ ä»Ģä¹Īä¸ľè¥¿
ä½ľ åŁºç¡Ģ
ä½ľ æĮĤåľ¨
ä½ľ åĵģ
ä½ľ æķħäºĭè®¾å®ļ
æľĢ éĩįè¦ģ
æľĢ åĸľæ¬¢åģļä»Ģä¹Ī
æľĢ åĪĿçļĦæľĭåıĭ
èĩªå·± è¿ĺ
èĩªå·± åĴĮåıĭè°Ĭ
èĩªå·± å¾Īä¹ħä»¥
èĩªå·± çĶ¨æłĳèİ
åĪ° å®ĥä¼ļ
åĪ° é±¼åĦ¿ä»¬
åĪ° çļĦå¥½æľĭåıĭ
éĩĮ æľīç¥ŀä¹ĭå¿ĥç¢İçīĩ
éĩĮ æĬĵåĪ°
é¡ »åĮºåĪĨ
çĤ¹ æĺ¯ä»Ģä¹Ī
âĢĿ ï¼Ľ
æĺ¯ä»Ģä¹Ī æł·çļĦä¸ľè¥¿
éĴ ®æľīä»Ģä¹Ī
è®¾å®ļ æ·
è®¾å®ļ è¿ĺ
è®¾å®ļ ä¸Ńå¸¦æľī
äºĮåĪĽ æķħäºĭä¸Ń
åŁºç¡Ģ è®¾å®ļè¿ĺ
å¿ĥ æĦı
ç¼ Ģåľ¨
ç¼ ĸèĬ±
ä¸įèĥ½ çĶ¨æĻ®éĢļ
å½ĵ æĪĲå®ĺæĸ¹
å½ĵ ä½ľåŁºç¡Ģ
æĦı ä¹ī
åıĳ æĮ¥ä½ľçĶ¨
è¯Ŀ çļĦæľĭåıĭ
å®¶ åĽŃçļĦ
æĹł èģĬ
åĨĴéĻ© æķħäºĭä¸Ń
åĨĴéĻ© åĴĮå¦Īå¦Ī
èī² æĿ¥åĲĵäºº
ä»İ ä¼Ļä¼´
çĲĨè§£ ä¸ºè§Ĵèī²
ĠåĺŁåĺŁåı¯ æĺ¯åı¯èİī
ĠåĺŁåĺŁåı¯ åĴĮä¼Ļä¼´ä»¬
éĽ ·æ³
çİ° äºĨèī¾èİīä¸Ŀ
Ġåľ¨ çŁ¥è¯ĨåºĵçļĦ
Ġåľ¨ æķħäºĭéĩĮ
Ġåľ¨ è¿Ļä»½
è¯´æĺİ å®ĥæĿ¥
çļĦå°ı å·§çİ©åģ¶
åĲĳ å±
åĲĳ å¾Ģ
è½ ½çĿĢ
èĭ ±åĴĮ
Ġå®ĥ åĴĮåı¯èİī
Ġå®ĥ å¸®åĬ©
Ġå®ĥ æĺ¯åı¯èİī
Ġå®ĥ ä»£è¡¨
Ġå®ĥ çĶ¨çģ
Ġå®ĥ ä»¬éĥ
åĽ¢ æĬ¥åĪ°
æķħäºĭä¸Ń è¯´
æķħäºĭä¸Ń æĢİæł·
ä»Ģä¹Īæĺ¯ çī¹åĪ«è¹¦è¹¦
ä»Ģä¹Īæĺ¯ å¥½æľĭåıĭ
å¼Ģ ç¾¤å²Ľ
æĢİæł· ä»ĭç»į
æĢİæł· ç§°åĳ¼
éĩį æĸ°
åİ» åĨĴéĻ©
åİ» çİ©
åĬĽ å¤ª
å¸®åĬ© å¤§å®¶
å¸®åĬ© çī¹åĪ«è¹¦è¹¦
è°ģ åĪ¶ä½ľ
çĪ ¬å½±
Ġå¥¹ å¸¸
Ġå¥¹ ä¼ļè¯´è¿Ļæĺ¯
ä¼Ļä¼´ å½¼æŃ¤
åı¯èİīçļĦ ç§°
åı¯èİīçļĦ ä¸ĵ
å®ĥä»¬ ä½ıåľ¨
å®ĥä»¬ ä¸Ģèµ·çİ©èĢį
å®ĥä»¬ åĸĦèī¯
å®ĥä»¬ éĢļè¿ĩ
å®ĥä»¬ ä¼ļç¦»
åıĭè°Ĭ ä¸İ
çĤ¸ é±¼
å¤§å®¶ è®°ä½ı
å¤§å®¶ æľĢåĲİ
